{
  "version": "1.0",
  "truncation": null,
  "padding": null,
  "added_tokens": [
    {
      "id": 0,
      "content": "<pad>",
      "single_word": false,
      "lstrip": false,
      "rstrip": false,
      "normalized": false,
      "special": true
    },
    {
      "id": 1,
      "content": "<unk>",
      "single_word": false,
      "lstrip": false,
      "rstrip": false,
      "normalized": false,
      "special": true
    },
    {
      "id": 2,
      "content": "<bos>",
      "single_word": false,
      "lstrip": false,
      "rstrip": false,
      "normalized": false,
      "special": true
    },
    {
      "id": 3,
      "content": "<eos>",
      "single_word": false,
      "lstrip": false,
      "rstrip": false,
      "normalized": false,
      "special": true
    }
  ],
  "normalizer": null,
  "pre_tokenizer": {
    "type": "Whitespace"
  },
  "post_processor": null,
  "decoder": null,
  "model": {
    "type": "BPE",
    "dropout": null,
    "unk_token": "<unk>",
    "continuing_subword_prefix": null,
    "end_of_word_suffix": null,
    "fuse_unk": false,
    "byte_fallback": false,
    "ignore_merges": false,
    "vocab": {
      "<pad>": 0,
      "<unk>": 1,
      "<bos>": 2,
      "<eos>": 3,
      "!": 4,
      "\"": 5,
      "$": 6,
      "'": 7,
      ",": 8,
      "-": 9,
      ".": 10,
      "0": 11,
      "1": 12,
      "2": 13,
      "3": 14,
      "8": 15,
      ":": 16,
      ";": 17,
      "?": 18,
      "A": 19,
      "B": 20,
      "C": 21,
      "D": 22,
      "E": 23,
      "F": 24,
      "G": 25,
      "H": 26,
      "I": 27,
      "J": 28,
      "K": 29,
      "L": 30,
      "M": 31,
      "N": 32,
      "O": 33,
      "P": 34,
      "Q": 35,
      "R": 36,
      "S": 37,
      "T": 38,
      "U": 39,
      "V": 40,
      "W": 41,
      "X": 42,
      "Y": 43,
      "Z": 44,
      "a": 45,
      "b": 46,
      "c": 47,
      "d": 48,
      "e": 49,
      "f": 50,
      "g": 51,
      "h": 52,
      "i": 53,
      "j": 54,
      "k": 55,
      "l": 56,
      "m": 57,
      "n": 58,
      "o": 59,
      "p": 60,
      "q": 61,
      "r": 62,
      "s": 63,
      "t": 64,
      "u": 65,
      "v": 66,
      "w": 67,
      "x": 68,
      "y": 69,
      "z": 70,
      "§": 71,
      "¨": 72,
      "©": 73,
      "ª": 74,
      "®": 75,
      "´": 76,
      "¹": 77,
      "À": 78,
      "Ã": 79,
      "Ç": 80,
      "É": 81,
      "Ê": 82,
      "à": 83,
      "â": 84,
      "ç": 85,
      "è": 86,
      "é": 87,
      "ê": 88,
      "ë": 89,
      "î": 90,
      "ï": 91,
      "ô": 92,
      "ù": 93,
      "û": 94,
      "œ": 95,
      "”": 96,
      "€": 97,
      "™": 98,
      "le": 99,
      "ai": 100,
      "ou": 101,
      "en": 102,
      "et": 103,
      "re": 104,
      "de": 105,
      "ait": 106,
      "on": 107,
      "an": 108,
      "ent": 109,
      "il": 110,
      "it": 111,
      "er": 112,
      "qu": 113,
      "se": 114,
      "un": 115,
      "lle": 116,
      "Il": 117,
      "our": 118,
      "la": 119,
      "ar": 120,
      "es": 121,
      "ch": 122,
      "ét": 123,
      "au": 124,
      "is": 125,
      "av": 126,
      "eu": 127,
      "am": 128,
      "te": 129,
      "était": 130,
      "in": 131,
      "om": 132,
      "or": 133,
      "as": 134,
      "tr": 135,
      "une": 136,
      "Elle": 137,
      "que": 138,
      "oi": 139,
      "ur": 140,
      "dit": 141,
      "ais": 142,
      "les": 143,
      "ont": 144,
      "pr": 145,
      "elle": 146,
      "Ils": 147,
      "ant": 148,
      "sa": 149,
      "lu": 150,
      "ouv": 151,
      "ans": 152,
      "est": 153,
      "ne": 154,
      "dans": 155,
      "pas": 156,
      "al": 157,
      "jour": 158,
      "ment": 159,
      "ap": 160,
      "ous": 161,
      "avait": 162,
      "par": 163,
      "ce": 164,
      "ci": 165,
      "ée": 166,
      "aient": 167,
      "jou": 168,
      "ave": 169,
      "ri": 170,
      "and": 171,
      "son": 172,
      "des": 173,
      "avec": 174,
      "Lil": 175,
      "me": 176,
      "pour": 177,
      "ille": 178,
      "aman": 179,
      "ois": 180,
      "Lily": 181,
      "gr": 182,
      "rent": 183,
      "tre": 184,
      "im": 185,
      "ès": 186,
      "gar": 187,
      "eux": 188,
      "si": 189,
      "ses": 190,
      "end": 191,
      "dé": 192,
      "at": 193,
      "ol": 194,
      "ag": 195,
      "etit": 196,
      "leur": 197,
      "us": 198,
      "petit": 199,
      "ère": 200,
      "tou": 201,
      "oir": 202,
      "eau": 203,
      "maman": 204,
      "ons": 205,
      "ils": 206,
      "ure": 207,
      "mais": 208,
      "Le": 209,
      "lui": 210,
      "che": 211,
      "com": 212,
      "ré": 213,
      ".\"": 214,
      "reu": 215,
      "du": 216,
      "très": 217,
      "li": 218,
      "lait": 219,
      "sur": 220,
      "fois": 221,
      "ort": 222,
      "heu": 223,
      "ors": 224,
      "ir": 225,
      "ain": 226,
      "Ben": 227,
      "!\"": 228,
      "br": 229,
      "qui": 230,
      "sour": 231,
      "ble": 232,
      "vou": 233,
      "jouer": 234,
      "heureu": 235,
      "cou": 236,
      "lus": 237,
      "ac": 238,
      "plus": 239,
      "cho": 240,
      "Un": 241,
      "ser": 242,
      "vo": 243,
      "sent": 244,
      "res": 245,
      "cour": 246,
      "La": 247,
      "ex": 248,
      "aim": 249,
      "fille": 250,
      "uis": 251,
      "sont": 252,
      "ge": 253,
      "telle": 254,
      "tellement": 255,
      "Tim": 256,
      "eur": 257,
      "aire": 258,
      "my": 259,
      "ver": 260,
      "petite": 261,
      "vi": 262,
      "èrent": 263,
      "Tom": 264,
      "dem": 265,
      "regar": 266,
      "ut": 267,
      "lé": 268,
      "voulait": 269,
      "ro": 270,
      "quel": 271,
      "aut": 272,
      "être": 273,
      "vit": 274,
      "pe": 275,
      "Je": 276,
      "cher": 277,
      "part": 278,
      "?\"": 279,
      "ien": 280,
      "trouv": 281,
      "uit": 282,
      "ra": 283,
      "sem": 284,
      "der": 285,
      "tu": 286,
      "tout": 287,
      "pouv": 288,
      "amis": 289,
      "men": 290,
      "grand": 291,
      "Mais": 292,
      "té": 293,
      "rem": 294,
      "ter": 295,
      "ue": 296,
      "heureux": 297,
      "faire": 298,
      "mon": 299,
      "çon": 300,
      "lo": 301,
      "ill": 302,
      "rer": 303,
      "ion": 304,
      "ff": 305,
      "pro": 306,
      "nouv": 307,
      "os": 308,
      "étaient": 309,
      "pé": 310,
      "di": 311,
      "demand": 312,
      "na": 313,
      ",\"": 314,
      "coup": 315,
      "leurs": 316,
      "aimait": 317,
      "sé": 318,
      "chose": 319,
      "nom": 320,
      "bre": 321,
      "aus": 322,
      "beau": 323,
      "jours": 324,
      "avoir": 325,
      "garçon": 326,
      "co": 327,
      "vu": 328,
      "endre": 329,
      "aux": 330,
      "exc": 331,
      "fi": 332,
      "dev": 333,
      "ui": 334,
      "ang": 335,
      "je": 336,
      "Timmy": 337,
      "és": 338,
      "commen": 339,
      "con": 340,
      "amus": 341,
      "fait": 342,
      "mé": 343,
      "voir": 344,
      "eut": 345,
      "voit": 346,
      "cont": 347,
      "jus": 348,
      "ot": 349,
      "da": 350,
      "pi": 351,
      "ami": 352,
      "tous": 353,
      "all": 354,
      "semble": 355,
      "quelque": 356,
      "beaucoup": 357,
      "jouet": 358,
      "aussi": 359,
      "Tu": 360,
      "Maman": 361,
      "ve": 362,
      "An": 363,
      "vers": 364,
      "ta": 365,
      "souri": 366,
      "ça": 367,
      "ara": 368,
      "ard": 369,
      "autre": 370,
      "vous": 371,
      "toujours": 372,
      "mi": 373,
      "excit": 374,
      "tes": 375,
      "sourit": 376,
      "nous": 377,
      "dis": 378,
      "Sara": 379,
      "erci": 380,
      "age": 381,
      "cé": 382,
      "ante": 383,
      "lors": 384,
      "cha": 385,
      "ête": 386,
      "enf": 387,
      "so": 388,
      "alors": 389,
      "nouveau": 390,
      "col": 391,
      "per": 392,
      "bo": 393,
      "ten": 394,
      "ux": 395,
      "omme": 396,
      "demanda": 397,
      "voiture": 398,
      "don": 399,
      "fr": 400,
      "gn": 401,
      "pré": 402,
      "gent": 403,
      "bon": 404,
      "Anna": 405,
      "ensemble": 406,
      "ande": 407,
      "parc": 408,
      "ret": 409,
      "tris": 410,
      "près": 411,
      "oise": 412,
      "pla": 413,
      "po": 414,
      "déci": 415,
      "be": 416,
      "bou": 417,
      "euse": 418,
      "port": 419,
      "int": 420,
      "sol": 421,
      "bras": 422,
      "main": 423,
      "Sa": 424,
      "heureuse": 425,
      "jam": 426,
      "sort": 427,
      "rou": 428,
      "pouvait": 429,
      "ma": 430,
      "fort": 431,
      "ens": 432,
      "monde": 433,
      "essa": 434,
      "pou": 435,
      "ack": 436,
      "em": 437,
      "Jack": 438,
      "ca": 439,
      "homme": 440,
      "sou": 441,
      "ine": 442,
      "ord": 443,
      "apa": 444,
      "maison": 445,
      "choses": 446,
      "là": 447,
      "spé": 448,
      "spéci": 449,
      "Qu": 450,
      "chien": 451,
      "essay": 452,
      "ette": 453,
      "pris": 454,
      "triste": 455,
      "deux": 456,
      "ner": 457,
      "grande": 458,
      "jamais": 459,
      "mar": 460,
      "toi": 461,
      "op": 462,
      "ler": 463,
      "mes": 464,
      "aider": 465,
      "el": 466,
      "ie": 467,
      "gros": 468,
      "jouets": 469,
      "quand": 470,
      "mère": 471,
      "jusqu": 472,
      "Sam": 473,
      "oiseau": 474,
      "car": 475,
      "Alors": 476,
      "ple": 477,
      "ale": 478,
      "ient": 479,
      "teau": 480,
      "Mi": 481,
      "alle": 482,
      "cer": 483,
      "trop": 484,
      "rit": 485,
      "ange": 486,
      "prendre": 487,
      "voi": 488,
      "Jo": 489,
      "cri": 490,
      "aime": 491,
      "cur": 492,
      "gu": 493,
      "chant": 494,
      "min": 495,
      "arri": 496,
      "elles": 497,
      "ray": 498,
      "anger": 499,
      "Mia": 500,
      "att": 501,
      "autour": 502,
      "rap": 503,
      "Nous": 504,
      "chez": 505,
      "len": 506,
      "téri": 507,
      "dain": 508,
      "fais": 509,
      "va": 510,
      "ide": 511,
      "peux": 512,
      "yeux": 513,
      "puis": 514,
      "savait": 515,
      "orte": 516,
      "saut": 517,
      "exp": 518,
      "jard": 519,
      "mp": 520,
      "jardin": 521,
      "En": 522,
      "ants": 523,
      "ours": 524,
      "trav": 525,
      "sentait": 526,
      "tenant": 527,
      "ball": 528,
      "lon": 529,
      "né": 530,
      "née": 531,
      "vent": 532,
      "avaient": 533,
      "rép": 534,
      "boî": 535,
      "vre": 536,
      "Et": 537,
      "ad": 538,
      "ob": 539,
      "sole": 540,
      "térieur": 541,
      "cu": 542,
      "dent": 543,
      "ly": 544,
      "suis": 545,
      "ven": 546,
      "comme": 547,
      "remerci": 548,
      "Sou": 549,
      "quoi": 550,
      "arbre": 551,
      "soleil": 552,
      "mée": 553,
      "père": 554,
      "air": 555,
      "retour": 556,
      "Soudain": 557,
      "peur": 558,
      "Les": 559,
      "vé": 560,
      "boîte": 561,
      "sec": 562,
      "dess": 563,
      "ôt": 564,
      "Quand": 565,
      "mont": 566,
      "Ch": 567,
      "cham": 568,
      "partir": 569,
      "hors": 570,
      "intérieur": 571,
      "mom": 572,
      "peu": 573,
      "ême": 574,
      "attr": 575,
      "mer": 576,
      "rê": 577,
      "uc": 578,
      "veux": 579,
      "ciel": 580,
      "vie": 581,
      "temp": 582,
      "uite": 583,
      "Ma": 584,
      "ouver": 585,
      "regarda": 586,
      "fin": 587,
      "prit": 588,
      "brill": 589,
      "Ce": 590,
      "ier": 591,
      "nommée": 592,
      "vis": 593,
      "moment": 594,
      "moi": 595,
      "mag": 596,
      "dehors": 597,
      "journée": 598,
      "commencé": 599,
      "prom": 600,
      "ren": 601,
      "décida": 602,
      "aiment": 603,
      "trouvé": 604,
      "ballon": 605,
      "able": 606,
      "fer": 607,
      "pin": 608,
      "ager": 609,
      "autres": 610,
      "bl": 611,
      "ez": 612,
      "mal": 613,
      "même": 614,
      "illes": 615,
      "appe": 616,
      "rapide": 617,
      "anim": 618,
      "ab": 619,
      "rait": 620,
      "bruit": 621,
      "contin": 622,
      "aller": 623,
      "fit": 624,
      "avent": 625,
      "omb": 626,
      "meille": 627,
      "acc": 628,
      "commença": 629,
      "for": 630,
      "porte": 631,
      "chat": 632,
      "roit": 633,
      "désol": 634,
      "temps": 635,
      "Max": 636,
      "oy": 637,
      "oin": 638,
      "ram": 639,
      "nommé": 640,
      "lais": 641,
      "continu": 642,
      "ché": 643,
      "spécial": 644,
      "bien": 645,
      "ton": 646,
      "pri": 647,
      "content": 648,
      "ientôt": 649,
      "tête": 650,
      "ici": 651,
      "ail": 652,
      "eff": 653,
      "pée": 654,
      "som": 655,
      "ité": 656,
      "dou": 657,
      "ète": 658,
      "long": 659,
      "Vous": 660,
      "quelqu": 661,
      "lin": 662,
      "peut": 663,
      "olly": 664,
      "mit": 665,
      "Oui": 666,
      "ti": 667,
      "excitée": 668,
      "attrap": 669,
      "Puis": 670,
      "papa": 671,
      "let": 672,
      "explo": 673,
      "seu": 674,
      "amusant": 675,
      "chambre": 676,
      "aventure": 677,
      "tomb": 678,
      "déli": 679,
      "aque": 680,
      "cas": 681,
      "Chaque": 682,
      "effray": 683,
      "manger": 684,
      "poupée": 685,
      "explorer": 686,
      "ba": 687,
      "ers": 688,
      "où": 689,
      "endroit": 690,
      "excité": 691,
      "enfants": 692,
      "écou": 693,
      "ador": 694,
      "cam": 695,
      "vol": 696,
      "êt": 697,
      "entend": 698,
      "inc": 699,
      "préci": 700,
      "dre": 701,
      "hn": 702,
      "appro": 703,
      "sentit": 704,
      "diff": 705,
      "John": 706,
      "ni": 707,
      "promen": 708,
      "Luc": 709,
      "Molly": 710,
      "sui": 711,
      "enn": 712,
      "chi": 713,
      "Lucy": 714,
      "pl": 715,
      "avant": 716,
      "regard": 717,
      "rouge": 718,
      "mis": 719,
      "util": 720,
      "met": 721,
      "été": 722,
      "sac": 723,
      "courut": 724,
      "Non": 725,
      "tour": 726,
      "lapin": 727,
      "Elles": 728,
      "partager": 729,
      "core": 730,
      "pen": 731,
      "rend": 732,
      "encore": 733,
      "Lila": 734,
      "bes": 735,
      "cr": 736,
      "ct": 737,
      "dée": 738,
      "endit": 739,
      "cela": 740,
      "Fin": 741,
      "cal": 742,
      "laient": 743,
      "endant": 744,
      "ati": 745,
      "colère": 746,
      "merve": 747,
      "utilis": 748,
      "insec": 749,
      "voy": 750,
      "animaux": 751,
      "accord": 752,
      "délici": 753,
      "bientôt": 754,
      "trouva": 755,
      "terre": 756,
      "piè": 757,
      "mieux": 758,
      "jol": 759,
      "gne": 760,
      "pli": 761,
      "arrê": 762,
      "chau": 763,
      "meilleur": 764,
      "sait": 765,
      "ins": 766,
      "répon": 767,
      "ouvert": 768,
      "blo": 769,
      "trouver": 770,
      "Merci": 771,
      "feu": 772,
      "aide": 773,
      "out": 774,
      "oisson": 775,
      "faisait": 776,
      "can": 777,
      "fut": 778,
      "his": 779,
      "éc": 780,
      "courag": 781,
      "histoi": 782,
      "Peut": 783,
      "fam": 784,
      "arqu": 785,
      "person": 786,
      "gentil": 787,
      "camion": 788,
      "sant": 789,
      "trou": 790,
      "urer": 791,
      "aimaient": 792,
      "regardé": 793,
      "remarqu": 794,
      "go": 795,
      "idée": 796,
      "ras": 797,
      "sû": 798,
      "souv": 799,
      "allé": 800,
      "regarder": 801,
      "toutes": 802,
      "conn": 803,
      "bateau": 804,
      "famille": 805,
      "Après": 806,
      "vais": 807,
      "pru": 808,
      "curi": 809,
      "attent": 810,
      "rapidement": 811,
      "Bob": 812,
      "pap": 813,
      "to": 814,
      "sourire": 815,
      "besoin": 816,
      "Tout": 817,
      "vait": 818,
      "aine": 819,
      "anc": 820,
      "montr": 821,
      "demandé": 822,
      "lent": 823,
      "gé": 824,
      "ane": 825,
      "juste": 826,
      "adorait": 827,
      "suite": 828,
      "appris": 829,
      "fon": 830,
      "gla": 831,
      "revoir": 832,
      "asse": 833,
      "maintenant": 834,
      "travail": 835,
      "remercia": 836,
      "poisson": 837,
      "su": 838,
      "entendit": 839,
      "garde": 840,
      "alement": 841,
      "voix": 842,
      "fleurs": 843,
      "ph": 844,
      "voulaient": 845,
      "emmen": 846,
      "prise": 847,
      "prudent": 848,
      "Re": 849,
      "pous": 850,
      "couru": 851,
      "pouvons": 852,
      "âteau": 853,
      "voient": 854,
      "fé": 855,
      "lit": 856,
      "mou": 857,
      "pa": 858,
      "livre": 859,
      "brillant": 860,
      "sûr": 861,
      "Sue": 862,
      "belle": 863,
      "put": 864,
      "rendre": 865,
      "fière": 866,
      "curité": 867,
      "mor": 868,
      "pu": 869,
      "jouaient": 870,
      "rir": 871,
      "toute": 872,
      "pièce": 873,
      "gan": 874,
      "ique": 875,
      "lis": 876,
      "comp": 877,
      "ach": 878,
      "fati": 879,
      "jeu": 880,
      "pens": 881,
      "rien": 882,
      "voitures": 883,
      "ramas": 884,
      "fatigu": 885,
      "cette": 886,
      "gri": 887,
      "ho": 888,
      "pot": 889,
      "pendant": 890,
      "ame": 891,
      "trois": 892,
      "ages": 893,
      "chemin": 894,
      "surprise": 895,
      "vite": 896,
      "loin": 897,
      "pleurer": 898,
      "dessus": 899,
      "her": 900,
      "voler": 901,
      "Ensuite": 902,
      "bloc": 903,
      "Regarde": 904,
      "haut": 905,
      "êtes": 906,
      "ett": 907,
      "prend": 908,
      "passé": 909,
      "allait": 910,
      "jouait": 911,
      "rentrer": 912,
      "rester": 913,
      "prop": 914,
      "sécurité": 915,
      "vieil": 916,
      "Papa": 917,
      "no": 918,
      "chap": 919,
      "inqui": 920,
      "sentir": 921,
      "Jim": 922,
      "bé": 923,
      "bles": 924,
      "soi": 925,
      "ît": 926,
      "condu": 927,
      "Sarah": 928,
      "décidé": 929,
      "ru": 930,
      "illé": 931,
      "ation": 932,
      "réal": 933,
      "semb": 934,
      "donné": 935,
      "contente": 936,
      "Main": 937,
      "bli": 938,
      "cor": 939,
      "val": 940,
      "enou": 941,
      "ments": 942,
      "réf": 943,
      "froi": 944,
      "insecte": 945,
      "attention": 946,
      "Maintenant": 947,
      "Bon": 948,
      "Jane": 949,
      "lut": 950,
      "ures": 951,
      "méchant": 952,
      "plaît": 953,
      "essayer": 954,
      "attraper": 955,
      "enait": 956,
      "ouvrit": 957,
      "imp": 958,
      "disent": 959,
      "frère": 960,
      "préfé": 961,
      "eusement": 962,
      "Joe": 963,
      "forêt": 964,
      "câ": 965,
      "cré": 966,
      "dois": 967,
      "ches": 968,
      "comment": 969,
      "souris": 970,
      "courir": 971,
      "pier": 972,
      "herbe": 973,
      "bal": 974,
      "gens": 975,
      "étr": 976,
      "pouvoir": 977,
      "bonne": 978,
      "spéciale": 979,
      "diffé": 980,
      "Dais": 981,
      "chait": 982,
      "rière": 983,
      "visage": 984,
      "connais": 985,
      "Daisy": 986,
      "Ne": 987,
      "Son": 988,
      "tement": 989,
      "appla": 990,
      "dire": 991,
      "devait": 992,
      "chiot": 993,
      "répondit": 994,
      "réalis": 995,
      "réflé": 996,
      "applau": 997,
      "ign": 998,
      "Ça": 999,
      "œur": 1000,
      "esse": 1001,
      "bog": 1002,
      "travers": 1003,
      "brillante": 1004,
      "tobog": 1005,
      "câlin": 1006,
      "différent": 1007,
      "hé": 1008,
      "oubli": 1009,
      "oire": 1010,
      "Tommy": 1011,
      "roy": 1012,
      "amie": 1013,
      "lons": 1014,
      "déc": 1015,
      "serré": 1016,
      "vivait": 1017,
      "sembl": 1018,
      "soit": 1019,
      "coll": 1020,
      "quelques": 1021,
      "dame": 1022,
      "ja": 1023,
      "joi": 1024,
      "sous": 1025,
      "tait": 1026,
      "pourquoi": 1027,
      "reux": 1028,
      "dirent": 1029,
      "ensuite": 1030,
      "magique": 1031,
      "merveille": 1032,
      "délicieux": 1033,
      "Bonjour": 1034,
      "balan": 1035,
      "Bien": 1036,
      "cray": 1037,
      "four": 1038,
      "irent": 1039,
      "jet": 1040,
      "mot": 1041,
      "ents": 1042,
      "chercher": 1043,
      "après": 1044,
      "dr": 1045,
      "ies": 1046,
      "nour": 1047,
      "sau": 1048,
      "vr": 1049,
      "inte": 1050,
      "regarde": 1051,
      "derrière": 1052,
      "table": 1053,
      "chaque": 1054,
      "seule": 1055,
      "froid": 1056,
      "Al": 1057,
      "cons": 1058,
      "apprendre": 1059,
      "acqui": 1060,
      "nouvelle": 1061,
      "poche": 1062,
      "histoire": 1063,
      "personne": 1064,
      "blocs": 1065,
      "semblait": 1066,
      "cuis": 1067,
      "rée": 1068,
      "rac": 1069,
      "tain": 1070,
      "alla": 1071,
      "partout": 1072,
      "sortir": 1073,
      "toboggan": 1074,
      "acquies": 1075,
      "fleur": 1076,
      "nu": 1077,
      "ny": 1078,
      "nuit": 1079,
      "veut": 1080,
      "point": 1081,
      "volant": 1082,
      "feuilles": 1083,
      "goû": 1084,
      "Jill": 1085,
      "Une": 1086,
      "ger": 1087,
      "iner": 1088,
      "ouvrir": 1089,
      "joué": 1090,
      "rocher": 1091,
      "rempli": 1092,
      "Que": 1093,
      "bres": 1094,
      "cô": 1095,
      "ed": 1096,
      "font": 1097,
      "lè": 1098,
      "rais": 1099,
      "raient": 1100,
      "vres": 1101,
      "aille": 1102,
      "seau": 1103,
      "import": 1104,
      "signe": 1105,
      "oiseaux": 1106,
      "porter": 1107,
      "essayé": 1108,
      "utiliser": 1109,
      "pensait": 1110,
      "Au": 1111,
      "non": 1112,
      "lam": 1113,
      "serra": 1114,
      "deven": 1115,
      "riture": 1116,
      "arriv": 1117,
      "montrer": 1118,
      "désolée": 1119,
      "chaud": 1120,
      "Allons": 1121,
      "balle": 1122,
      "ème": 1123,
      "parents": 1124,
      "grosse": 1125,
      "papill": 1126,
      "Jimmy": 1127,
      "couvert": 1128,
      "dy": 1129,
      "mir": 1130,
      "sée": 1131,
      "tard": 1132,
      "œu": 1133,
      "aie": 1134,
      "illa": 1135,
      "fier": 1136,
      "contr": 1137,
      "donna": 1138,
      "essaya": 1139,
      "cerf": 1140,
      "joie": 1141,
      "nourriture": 1142,
      "constr": 1143,
      "racont": 1144,
      "bois": 1145,
      "ron": 1146,
      "st": 1147,
      "use": 1148,
      "cep": 1149,
      "desc": 1150,
      "iller": 1151,
      "ira": 1152,
      "dispar": 1153,
      "cria": 1154,
      "bas": 1155,
      "ces": 1156,
      "mo": 1157,
      "mang": 1158,
      "nes": 1159,
      "tion": 1160,
      "illait": 1161,
      "queu": 1162,
      "amuser": 1163,
      "mière": 1164,
      "crié": 1165,
      "chapeau": 1166,
      "mau": 1167,
      "vint": 1168,
      "ance": 1169,
      "app": 1170,
      "demain": 1171,
      "demande": 1172,
      "auss": 1173,
      "contre": 1174,
      "mains": 1175,
      "ordre": 1176,
      "incroy": 1177,
      "achet": 1178,
      "De": 1179,
      "Em": 1180,
      "Par": 1181,
      "bâ": 1182,
      "pleur": 1183,
      "veu": 1184,
      "leva": 1185,
      "anche": 1186,
      "arbres": 1187,
      "appréci": 1188,
      "dés": 1189,
      "ature": 1190,
      "robe": 1191,
      "sortit": 1192,
      "seul": 1193,
      "entendu": 1194,
      "propre": 1195,
      "côté": 1196,
      "queue": 1197,
      "\".": 1198,
      "éch": 1199,
      "chauss": 1200,
      "atte": 1201,
      "cheval": 1202,
      "ligent": 1203,
      "trouvait": 1204,
      "donner": 1205,
      "attend": 1206,
      "désolé": 1207,
      "sombre": 1208,
      "sommes": 1209,
      "douce": 1210,
      "remarqua": 1211,
      "curieux": 1212,
      "glace": 1213,
      "inquiète": 1214,
      "réfléch": 1215,
      "mu": 1216,
      "mur": 1217,
      "oc": 1218,
      "sin": 1219,
      "ass": 1220,
      "urent": 1221,
      "passer": 1222,
      "garder": 1223,
      "tristes": 1224,
      "sauter": 1225,
      "Cela": 1226,
      "hocha": 1227,
      "semblant": 1228,
      "jaune": 1229,
      "veulent": 1230,
      "doi": 1231,
      "gâteau": 1232,
      "lligent": 1233,
      "rête": 1234,
      "sante": 1235,
      "tent": 1236,
      "vois": 1237,
      "couleurs": 1238,
      "répa": 1239,
      "tomber": 1240,
      "écouter": 1241,
      "Finalement": 1242,
      "meilleurs": 1243,
      "courageuse": 1244,
      "intelligent": 1245,
      "papillon": 1246,
      "Dès": 1247,
      "hi": 1248,
      "hui": 1249,
      "mons": 1250,
      "uy": 1251,
      "leçon": 1252,
      "prêt": 1253,
      "parler": 1254,
      "bleu": 1255,
      "télé": 1256,
      "illy": 1257,
      "allée": 1258,
      "color": 1259,
      "plein": 1260,
      "continua": 1261,
      "doux": 1262,
      "préféré": 1263,
      "étrange": 1264,
      "El": 1265,
      "Pour": 1266,
      "mange": 1267,
      "sais": 1268,
      "âte": 1269,
      "onne": 1270,
      "lumière": 1271,
      "jourd": 1272,
      "atient": 1273,
      "serait": 1274,
      "nouvelles": 1275,
      "gentille": 1276,
      "lentement": 1277,
      "sauta": 1278,
      "retourn": 1279,
      "plan": 1280,
      "courageux": 1281,
      "cuisine": 1282,
      "lampe": 1283,
      "réparer": 1284,
      "Spot": 1285,
      "ges": 1286,
      "ise": 1287,
      "lou": 1288,
      "tis": 1289,
      "îner": 1290,
      "oui": 1291,
      "toucher": 1292,
      "rose": 1293,
      "enfant": 1294,
      "retr": 1295,
      "visit": 1296,
      "approcha": 1297,
      "diffici": 1298,
      "ennent": 1299,
      "ction": 1300,
      "écla": 1301,
      "monstre": 1302,
      "Oh": 1303,
      "bons": 1304,
      "glis": 1305,
      "pan": 1306,
      "pos": 1307,
      "étoi": 1308,
      "avi": 1309,
      "euses": 1310,
      "vola": 1311,
      "pouvez": 1312,
      "disait": 1313,
      "longtemps": 1314,
      "abe": 1315,
      "dor": 1316,
      "fa": 1317,
      "joy": 1318,
      "lée": 1319,
      "ées": 1320,
      "ary": 1321,
      "étang": 1322,
      "sion": 1323,
      "Benny": 1324,
      "sentant": 1325,
      "nouvel": 1326,
      "confort": 1327,
      "fini": 1328,
      "regardait": 1329,
      "pierre": 1330,
      "colline": 1331,
      "On": 1332,
      "aign": 1333,
      "reconnais": 1334,
      "isc": 1335,
      "réve": 1336,
      "livres": 1337,
      "accep": 1338,
      "senti": 1339,
      "eurs": 1340,
      "rot": 1341,
      "profon": 1342,
      "uire": 1343,
      "arriva": 1344,
      "oyer": 1345,
      "cassé": 1346,
      "incroyable": 1347,
      "Pourquoi": 1348,
      "frot": 1349,
      "ow": 1350,
      "sc": 1351,
      "suc": 1352,
      "deau": 1353,
      "entra": 1354,
      "espé": 1355,
      "chée": 1356,
      "asin": 1357,
      "avez": 1358,
      "pelu": 1359,
      "illère": 1360,
      "jeun": 1361,
      "cuillère": 1362,
      "venu": 1363,
      "venir": 1364,
      "magasin": 1365,
      "chaton": 1366,
      "effrayé": 1367,
      "allés": 1368,
      "acquiescé": 1369,
      "important": 1370,
      "dét": 1371,
      "gle": 1372,
      "ile": 1373,
      "mat": 1374,
      "nos": 1375,
      "aupar": 1376,
      "pourrait": 1377,
      "grenou": 1378,
      "lion": 1379,
      "gentils": 1380,
      "longue": 1381,
      "joli": 1382,
      "remarqué": 1383,
      "phot": 1384,
      "fatigué": 1385,
      "grim": 1386,
      "balanç": 1387,
      "auparavant": 1388,
      "Ses": 1389,
      "Sall": 1390,
      "buis": 1391,
      "cin": 1392,
      "dîner": 1393,
      "fen": 1394,
      "noir": 1395,
      "ander": 1396,
      "parfait": 1397,
      "branche": 1398,
      "vieux": 1399,
      "illée": 1400,
      "pées": 1401,
      "pied": 1402,
      "disput": 1403,
      "enfuit": 1404,
      "donne": 1405,
      "certain": 1406,
      "remercié": 1407,
      "continué": 1408,
      "pense": 1409,
      "papier": 1410,
      "morce": 1411,
      "notre": 1412,
      "vraiment": 1413,
      "chaussures": 1414,
      "matin": 1415,
      "Sally": 1416,
      "buisson": 1417,
      "Veux": 1418,
      "Wow": 1419,
      "cous": 1420,
      "pê": 1421,
      "sœur": 1422,
      "émerve": 1423,
      "ques": 1424,
      "chois": 1425,
      "sign": 1426,
      "déjeun": 1427,
      "petits": 1428,
      "cheveux": 1429,
      "regardent": 1430,
      "iens": 1431,
      "nomb": 1432,
      "devant": 1433,
      "Salut": 1434,
      "cache": 1435,
      "secret": 1436,
      "histoires": 1437,
      "désordre": 1438,
      "fenêtre": 1439,
      "gt": 1440,
      "hait": 1441,
      "ju": 1442,
      "nait": 1443,
      "nor": 1444,
      "nett": 1445,
      "savoir": 1446,
      "tant": 1447,
      "aise": 1448,
      "avons": 1449,
      "jouent": 1450,
      "rie": 1451,
      "pouvaient": 1452,
      "souhait": 1453,
      "lendemain": 1454,
      "venait": 1455,
      "ferme": 1456,
      "appela": 1457,
      "meilleure": 1458,
      "doigt": 1459,
      "Amy": 1460,
      "bain": 1461,
      "cles": 1462,
      "ig": 1463,
      "nie": 1464,
      "rèrent": 1465,
      "tons": 1466,
      "éco": 1467,
      "chans": 1468,
      "avion": 1469,
      "appart": 1470,
      "coucher": 1471,
      "demander": 1472,
      "pein": 1473,
      "partag": 1474,
      "proch": 1475,
      "poupées": 1476,
      "sauté": 1477,
      "personnes": 1478,
      "montra": 1479,
      "soign": 1480,
      "merveilleux": 1481,
      "couverture": 1482,
      "école": 1483,
      "ade": 1484,
      "bous": 1485,
      "dange": 1486,
      "sans": 1487,
      "saient": 1488,
      "él": 1489,
      "élé": 1490,
      "ense": 1491,
      "este": 1492,
      "train": 1493,
      "parfois": 1494,
      "oli": 1495,
      "luie": 1496,
      "courait": 1497,
      "vert": 1498,
      "virent": 1499,
      "uits": 1500,
      "grands": 1501,
      "gnon": 1502,
      "bouger": 1503,
      "souff": 1504,
      "peuvent": 1505,
      "rencontr": 1506,
      "désolés": 1507,
      "promener": 1508,
      "poissons": 1509,
      "drô": 1510,
      "appelle": 1511,
      "acheter": 1512,
      "réfléchit": 1513,
      "éclabous": 1514,
      "peluche": 1515,
      "déjeuner": 1516,
      "Tous": 1517,
      "pau": 1518,
      "rons": 1519,
      "sèrent": 1520,
      "çait": 1521,
      "illi": 1522,
      "ari": 1523,
      "assi": 1524,
      "appar": 1525,
      "rire": 1526,
      "sieste": 1527,
      "endor": 1528,
      "surpris": 1529,
      "votre": 1530,
      "fiers": 1531,
      "amusèrent": 1532,
      "poser": 1533,
      "sorti": 1534,
      "vieille": 1535,
      "appelé": 1536,
      "abord": 1537,
      "promenait": 1538,
      "curieuse": 1539,
      "difficile": 1540,
      "grenouille": 1541,
      "soigneusement": 1542,
      "Billy": 1543,
      "Com": 1544,
      "Pouv": 1545,
      "cre": 1546,
      "fête": 1547,
      "ore": 1548,
      "quer": 1549,
      "secou": 1550,
      "lac": 1551,
      "prennent": 1552,
      "passait": 1553,
      "imag": 1554,
      "allons": 1555,
      "mise": 1556,
      "nouveaux": 1557,
      "tenait": 1558,
      "expli": 1559,
      "appelée": 1560,
      "lettre": 1561,
      "aventures": 1562,
      "insectes": 1563,
      "voyage": 1564,
      "différentes": 1565,
      "éloi": 1566,
      "bu": 1567,
      "fri": 1568,
      "fus": 1569,
      "jo": 1570,
      "vête": 1571,
      "écri": 1572,
      "araign": 1573,
      "aurait": 1574,
      "sale": 1575,
      "jouèrent": 1576,
      "lire": 1577,
      "court": 1578,
      "trouvent": 1579,
      "coin": 1580,
      "devez": 1581,
      "Andy": 1582,
      "colla": 1583,
      "prépar": 1584,
      "soula": 1585,
      "retourna": 1586,
      "montre": 1587,
      "mettre": 1588,
      "jolie": 1589,
      "crayons": 1590,
      "construire": 1591,
      "bâton": 1592,
      "visite": 1593,
      "vêtements": 1594,
      "Bientôt": 1595,
      "ak": 1596,
      "aff": 1597,
      "bat": 1598,
      "genou": 1599,
      "ige": 1600,
      "man": 1601,
      "nt": 1602,
      "ok": 1603,
      "pon": 1604,
      "pluie": 1605,
      "enne": 1606,
      "anci": 1607,
      "lar": 1608,
      "arrête": 1609,
      "inrent": 1610,
      "rentra": 1611,
      "voulu": 1612,
      "devons": 1613,
      "enfin": 1614,
      "place": 1615,
      "bouche": 1616,
      "carte": 1617,
      "cupé": 1618,
      "dessiner": 1619,
      "attrapa": 1620,
      "renard": 1621,
      "crayon": 1622,
      "abeille": 1623,
      "joyeusement": 1624,
      "prochaine": 1625,
      "Jen": 1626,
      "ajou": 1627,
      "ban": 1628,
      "forte": 1629,
      "mét": 1630,
      "prem": 1631,
      "trés": 1632,
      "brillait": 1633,
      "servi": 1634,
      "courent": 1635,
      "devri": 1636,
      "commenc": 1637,
      "amusent": 1638,
      "amusés": 1639,
      "mél": 1640,
      "amical": 1641,
      "perdu": 1642,
      "portait": 1643,
      "cadeau": 1644,
      "chanter": 1645,
      "obser": 1646,
      "vélo": 1647,
      "formes": 1648,
      "laisse": 1649,
      "précieuse": 1650,
      "calme": 1651,
      "canne": 1652,
      "montré": 1653,
      "prends": 1654,
      "soient": 1655,
      "Gr": 1656,
      "cami": 1657,
      "dû": 1658,
      "fla": 1659,
      "gag": 1660,
      "hu": 1661,
      "hab": 1662,
      "hâte": 1663,
      "ière": 1664,
      "nent": 1665,
      "nager": 1666,
      "sse": 1667,
      "vant": 1668,
      "qua": 1669,
      "sement": 1670,
      "arc": 1671,
      "chette": 1672,
      "château": 1673,
      "ing": 1674,
      "grave": 1675,
      "rentré": 1676,
      "course": 1677,
      "aimer": 1678,
      "parti": 1679,
      "termin": 1680,
      "cool": 1681,
      "cook": 1682,
      "excus": 1683,
      "amusante": 1684,
      "otte": 1685,
      "porta": 1686,
      "attendre": 1687,
      "magni": 1688,
      "blanc": 1689,
      "suivre": 1690,
      "rendait": 1691,
      "arrêté": 1692,
      "canard": 1693,
      "fonction": 1694,
      "corde": 1695,
      "mauvais": 1696,
      "confortable": 1697,
      "camions": 1698,
      "magnifi": 1699,
      "Plus": 1700,
      "but": 1701,
      "cée": 1702,
      "cro": 1703,
      "cra": 1704,
      "cœur": 1705,
      "fs": 1706,
      "faim": 1707,
      "mante": 1708,
      "pit": 1709,
      "ranger": 1710,
      "tasse": 1711,
      "vont": 1712,
      "vue": 1713,
      "lever": 1714,
      "depuis": 1715,
      "lat": 1716,
      "aute": 1717,
      "aisse": 1718,
      "lumin": 1719,
      "neige": 1720,
      "apprit": 1721,
      "trem": 1722,
      "ureu": 1723,
      "jeune": 1724,
      "souriait": 1725,
      "tendit": 1726,
      "mala": 1727,
      "soupe": 1728,
      "marcher": 1729,
      "marché": 1730,
      "attrapé": 1731,
      "effrayant": 1732,
      "suivit": 1733,
      "cteur": 1734,
      "arrêta": 1735,
      "écureu": 1736,
      "bébé": 1737,
      "serrés": 1738,
      "mangé": 1739,
      "Elly": 1740,
      "étoiles": 1741,
      "nettoyer": 1742,
      "imagin": 1743,
      "cookies": 1744,
      "cle": 1745,
      "haute": 1746,
      "off": 1747,
      "thé": 1748,
      "llez": 1749,
      "chante": 1750,
      "aujourd": 1751,
      "gré": 1752,
      "chemise": 1753,
      "peint": 1754,
      "amusaient": 1755,
      "soin": 1756,
      "cares": 1757,
      "cule": 1758,
      "animal": 1759,
      "cassée": 1760,
      "regardant": 1761,
      "super": 1762,
      "conducteur": 1763,
      "réalisa": 1764,
      "réalisé": 1765,
      "fourchette": 1766,
      "Emma": 1767,
      "assis": 1768,
      "éléph": 1769,
      "Comment": 1770,
      "Grand": 1771,
      "magnifique": 1772,
      "Allez": 1773,
      "Cette": 1774,
      "Est": 1775,
      "Fr": 1776,
      "Moi": 1777,
      "Mary": 1778,
      "Petit": 1779,
      "cl": 1780,
      "clé": 1781,
      "cue": 1782,
      "dait": 1783,
      "flo": 1784,
      "fesse": 1785,
      "hon": 1786,
      "pira": 1787,
      "tau": 1788,
      "ître": 1789,
      "chè": 1790,
      "princ": 1791,
      "passe": 1792,
      "cière": 1793,
      "rirent": 1794,
      "images": 1795,
      "bleue": 1796,
      "courant": 1797,
      "partit": 1798,
      "trouve": 1799,
      "professe": 1800,
      "demandait": 1801,
      "plage": 1802,
      "arrivé": 1803,
      "puisse": 1804,
      "Ensemble": 1805,
      "finalement": 1806,
      "rendu": 1807,
      "emmener": 1808,
      "brillantes": 1809,
      "morale": 1810,
      "ramasser": 1811,
      "illage": 1812,
      "enseign": 1813,
      "araignée": 1814,
      "écureuil": 1815,
      "éléphant": 1816,
      "princesse": 1817,
      "professeur": 1818,
      "bag": 1819,
      "bisc": 1820,
      "cut": 1821,
      "clo": 1822,
      "dur": 1823,
      "ga": 1824,
      "lor": 1825,
      "merci": 1826,
      "pil": 1827,
      "rue": 1828,
      "tort": 1829,
      "ves": 1830,
      "dedans": 1831,
      "ank": 1832,
      "entendre": 1833,
      "ili": 1834,
      "unes": 1835,
      "ince": 1836,
      "prenait": 1837,
      "salle": 1838,
      "salon": 1839,
      "rient": 1840,
      "rier": 1841,
      "grotte": 1842,
      "atta": 1843,
      "comète": 1844,
      "cherché": 1845,
      "probl": 1846,
      "devint": 1847,
      "devrais": 1848,
      "excitation": 1849,
      "bocal": 1850,
      "guer": 1851,
      "explor": 1852,
      "rêve": 1853,
      "regardèrent": 1854,
      "prudente": 1855,
      "moulin": 1856,
      "blessé": 1857,
      "nuages": 1858,
      "atiente": 1859,
      "parfaite": 1860,
      "dangereux": 1861,
      "drôle": 1862,
      "Frank": 1863,
      "chèvre": 1864,
      "Dés": 1865,
      "Peux": 1866,
      "bar": 1867,
      "bille": 1868,
      "celle": 1869,
      "cail": 1870,
      "ep": 1871,
      "lour": 1872,
      "nage": 1873,
      "rant": 1874,
      "savaient": 1875,
      "tas": 1876,
      "tim": 1877,
      "enir": 1878,
      "envola": 1879,
      "anni": 1880,
      "orange": 1881,
      "meaux": 1882,
      "reuses": 1883,
      "heures": 1884,
      "serre": 1885,
      "cherchait": 1886,
      "partie": 1887,
      "colle": 1888,
      "anges": 1889,
      "versaire": 1890,
      "bonjour": 1891,
      "marcha": 1892,
      "voile": 1893,
      "dessin": 1894,
      "monter": 1895,
      "vision": 1896,
      "oindre": 1897,
      "sommet": 1898,
      "ennuy": 1899,
      "assez": 1900,
      "ruban": 1901,
      "musi": 1902,
      "retrouv": 1903,
      "jumeaux": 1904,
      "éloign": 1905,
      "flot": 1906,
      "caillou": 1907,
      "anniversaire": 1908,
      "Où": 1909,
      "banc": 1910,
      "dèrent": 1911,
      "fil": 1912,
      "joindre": 1913,
      "pir": 1914,
      "sois": 1915,
      "tend": 1916,
      "taille": 1917,
      "échap": 1918,
      "énor": 1919,
      "ïe": 1920,
      "aidé": 1921,
      "aires": 1922,
      "ouh": 1923,
      "reposer": 1924,
      "iti": 1925,
      "qué": 1926,
      "chet": 1927,
      "inté": 1928,
      "urs": 1929,
      "sage": 1930,
      "importe": 1931,
      "Leo": 1932,
      "heure": 1933,
      "verte": 1934,
      "vient": 1935,
      "cherche": 1936,
      "produ": 1937,
      "propri": 1938,
      "boucles": 1939,
      "sortie": 1940,
      "arriver": 1941,
      "tombé": 1942,
      "écouta": 1943,
      "arrêter": 1944,
      "souvint": 1945,
      "pousser": 1946,
      "ramassa": 1947,
      "découvrir": 1948,
      "mots": 1949,
      "drag": 1950,
      "arrivée": 1951,
      "disparu": 1952,
      "Parfois": 1953,
      "télévision": 1954,
      "mangea": 1955,
      "sucré": 1956,
      "grimper": 1957,
      "certaines": 1958,
      "coussin": 1959,
      "Pouvons": 1960,
      "battre": 1961,
      "musique": 1962,
      "propriét": 1963,
      "Fais": 1964,
      "bi": 1965,
      "bure": 1966,
      "ds": 1967,
      "droit": 1968,
      "gi": 1969,
      "ible": 1970,
      "moy": 1971,
      "océ": 1972,
      "plu": 1973,
      "pol": 1974,
      "pomme": 1975,
      "sim": 1976,
      "tap": 1977,
      "ville": 1978,
      "yer": 1979,
      "ène": 1980,
      "îne": 1981,
      "œil": 1982,
      "lez": 1983,
      "reine": 1984,
      "argent": 1985,
      "assur": 1986,
      "oires": 1987,
      "récupé": 1988,
      "reste": 1989,
      "coururent": 1990,
      "firent": 1991,
      "fiable": 1992,
      "sourirent": 1993,
      "lorsque": 1994,
      "tenir": 1995,
      "bouge": 1996,
      "pleine": 1997,
      "retourner": 1998,
      "ramen": 1999,
      "pensa": 2000,
      "délicieuse": 2001,
      "emmena": 2002,
      "ramassé": 2003,
      "impres": 2004,
      "préférée": 2005,
      "applaudi": 2006,
      "mauv": 2007,
      "espérait": 2008,
      "disputer": 2009,
      "pêcher": 2010,
      "nombreuses": 2011,
      "habit": 2012,
      "Désol": 2013,
      "bureau": 2014,
      "simple": 2015,
      "Ave": 2016,
      "Cer": 2017,
      "Jam": 2018,
      "Jenn": 2019,
      "Jak": 2020,
      "Wa": 2021,
      "bur": 2022,
      "cit": 2023,
      "do": 2024,
      "din": 2025,
      "gée": 2026,
      "ions": 2027,
      "ky": 2028,
      "ocoll": 2029,
      "rat": 2030,
      "sav": 2031,
      "çant": 2032,
      "ïs": 2033,
      "oupe": 2034,
      "étu": 2035,
      "ombe": 2036,
      "organ": 2037,
      "tra": 2038,
      "prête": 2039,
      "antes": 2040,
      "rivi": 2041,
      "sons": 2042,
      "groupe": 2043,
      "garage": 2044,
      "lier": 2045,
      "sentent": 2046,
      "sentaient": 2047,
      "autocoll": 2048,
      "peine": 2049,
      "pect": 2050,
      "Jean": 2051,
      "amusait": 2052,
      "faites": 2053,
      "médi": 2054,
      "lorsqu": 2055,
      "chaîne": 2056,
      "posa": 2057,
      "décidèrent": 2058,
      "porté": 2059,
      "sortes": 2060,
      "emm": 2061,
      "embras": 2062,
      "arrière": 2063,
      "puissant": 2064,
      "venue": 2065,
      "champ": 2066,
      "ouverte": 2067,
      "ables": 2068,
      "abri": 2069,
      "laisser": 2070,
      "mouillé": 2071,
      "pierres": 2072,
      "miroir": 2073,
      "descend": 2074,
      "doucement": 2075,
      "photos": 2076,
      "émerveillé": 2077,
      "énorme": 2078,
      "dragon": 2079,
      "impression": 2080,
      "Certain": 2081,
      "James": 2082,
      "Jenny": 2083,
      "Jake": 2084,
      "Waouh": 2085,
      "organis": 2086,
      "rivière": 2087,
      "Flu": 2088,
      "aci": 2089,
      "den": 2090,
      "ire": 2091,
      "ises": 2092,
      "jeux": 2093,
      "nœu": 2094,
      "navi": 2095,
      "pâ": 2096,
      "sor": 2097,
      "wing": 2098,
      "ég": 2099,
      "revi": 2100,
      "éter": 2101,
      "nez": 2102,
      "passa": 2103,
      "chewing": 2104,
      "briller": 2105,
      "heureuses": 2106,
      "aimons": 2107,
      "vio": 2108,
      "ros": 2109,
      "ffy": 2110,
      "ffre": 2111,
      "profit": 2112,
      "coffre": 2113,
      "devinrent": 2114,
      "commençait": 2115,
      "mirent": 2116,
      "excités": 2117,
      "fruits": 2118,
      "cacher": 2119,
      "gum": 2120,
      "dessins": 2121,
      "rendit": 2122,
      "renver": 2123,
      "appeler": 2124,
      "aband": 2125,
      "continuait": 2126,
      "tions": 2127,
      "casser": 2128,
      "effrayée": 2129,
      "endroits": 2130,
      "écouté": 2131,
      "délicieuses": 2132,
      "prudents": 2133,
      "créature": 2134,
      "arrivés": 2135,
      "voisin": 2136,
      "intelligente": 2137,
      "retrouver": 2138,
      "dormir": 2139,
      "scint": 2140,
      "balançoires": 2141,
      "morceau": 2142,
      "chanson": 2143,
      "peintre": 2144,
      "premier": 2145,
      "manteau": 2146,
      "gréable": 2147,
      "cloche": 2148,
      "problème": 2149,
      "Fluffy": 2150,
      "Ar": 2151,
      "Be": 2152,
      "ay": 2153,
      "cac": 2154,
      "dos": 2155,
      "fu": 2156,
      "fant": 2157,
      "fée": 2158,
      "mâ": 2159,
      "rang": 2160,
      "tèrent": 2161,
      "recherche": 2162,
      "ess": 2163,
      "chu": 2164,
      "chent": 2165,
      "chèrent": 2166,
      "issait": 2167,
      "prai": 2168,
      "ellement": 2169,
      "salu": 2170,
      "sable": 2171,
      "ouvre": 2172,
      "danser": 2173,
      "jouant": 2174,
      "imon": 2175,
      "sif": 2176,
      "dépla": 2177,
      "répar": 2178,
      "ainsi": 2179,
      "bruy": 2180,
      "serrèrent": 2181,
      "resté": 2182,
      "confi": 2183,
      "allèrent": 2184,
      "vement": 2185,
      "poil": 2186,
      "rouler": 2187,
      "soudain": 2188,
      "rappe": 2189,
      "adhé": 2190,
      "dents": 2191,
      "approcher": 2192,
      "suivi": 2193,
      "tourner": 2194,
      "crème": 2195,
      "utilisé": 2196,
      "voyait": 2197,
      "chauve": 2198,
      "montrant": 2199,
      "travaillé": 2200,
      "conduis": 2201,
      "applaudis": 2202,
      "pieds": 2203,
      "joyeux": 2204,
      "devrions": 2205,
      "Avec": 2206,
      "étudi": 2207,
      "sorcière": 2208,
      "violet": 2209,
      "fantô": 2210,
      "adhésif": 2211,
      "Ali": 2212,
      "Pet": 2213,
      "Viens": 2214,
      "ate": 2215,
      "ahu": 2216,
      "bais": 2217,
      "cage": 2218,
      "furent": 2219,
      "pend": 2220,
      "tée": 2221,
      "ailes": 2222,
      "envers": 2223,
      "one": 2224,
      "avoc": 2225,
      "inaire": 2226,
      "indre": 2227,
      "omage": 2228,
      "tré": 2229,
      "gro": 2230,
      "image": 2231,
      "comprendre": 2232,
      "réus": 2233,
      "acun": 2234,
      "serrent": 2235,
      "ressemble": 2236,
      "resta": 2237,
      "couronne": 2238,
      "rempl": 2239,
      "filet": 2240,
      "commence": 2241,
      "méchante": 2242,
      "ottes": 2243,
      "sourient": 2244,
      "mier": 2245,
      "célé": 2246,
      "fromage": 2247,
      "bel": 2248,
      "boug": 2249,
      "bouton": 2250,
      "caden": 2251,
      "faisaient": 2252,
      "Char": 2253,
      "fermé": 2254,
      "ferma": 2255,
      "fermier": 2256,
      "laissé": 2257,
      "tiré": 2258,
      "effrayés": 2259,
      "précipit": 2260,
      "jolies": 2261,
      "chaude": 2262,
      "connu": 2263,
      "attenti": 2264,
      "pay": 2265,
      "réfléchi": 2266,
      "rochers": 2267,
      "Aujourd": 2268,
      "occu": 2269,
      "profonde": 2270,
      "photo": 2271,
      "morceaux": 2272,
      "crev": 2273,
      "écrire": 2274,
      "caresser": 2275,
      "biscuit": 2276,
      "timide": 2277,
      "propriétaire": 2278,
      "Désolé": 2279,
      "abandon": 2280,
      "cacahu": 2281,
      "prairie": 2282,
      "avocat": 2283,
      "cadenas": 2284,
      "Es": 2285,
      "Hé": 2286,
      "Leur": 2287,
      "Ted": 2288,
      "ache": 2289,
      "agréable": 2290,
      "bord": 2291,
      "faut": 2292,
      "gure": 2293,
      "lan": 2294,
      "pais": 2295,
      "plais": 2296,
      "rt": 2297,
      "stéri": 2298,
      "usa": 2299,
      "village": 2300,
      "épi": 2301,
      "levé": 2302,
      "aigu": 2303,
      "enille": 2304,
      "envoy": 2305,
      "regr": 2306,
      "repé": 2307,
      "rebon": 2308,
      "deaux": 2309,
      "chon": 2310,
      "chance": 2311,
      "chacun": 2312,
      "chenille": 2313,
      "auprès": 2314,
      "avan": 2315,
      "orne": 2316,
      "pren": 2317,
      "passèrent": 2318,
      "apé": 2319,
      "ceau": 2320,
      "grue": 2321,
      "bros": 2322,
      "voulut": 2323,
      "couleur": 2324,
      "vos": 2325,
      "aimé": 2326,
      "myrt": 2327,
      "mystéri": 2328,
      "utile": 2329,
      "trouvèrent": 2330,
      "remit": 2331,
      "diri": 2332,
      "figure": 2333,
      "méde": 2334,
      "discut": 2335,
      "enfui": 2336,
      "frap": 2337,
      "bonbons": 2338,
      "poin": 2339,
      "route": 2340,
      "marchait": 2341,
      "carbur": 2342,
      "mini": 2343,
      "adoraient": 2344,
      "volé": 2345,
      "entendent": 2346,
      "plante": 2347,
      "pensé": 2348,
      "répondu": 2349,
      "feuille": 2350,
      "rasoir": 2351,
      "souvenait": 2352,
      "glacée": 2353,
      "asseoir": 2354,
      "emmené": 2355,
      "oublié": 2356,
      "jeta": 2357,
      "seulement": 2358,
      "devenir": 2359,
      "échelle": 2360,
      "mule": 2361,
      "téléph": 2362,
      "Ella": 2363,
      "retournés": 2364,
      "reconnaissant": 2365,
      "accepta": 2366,
      "lettres": 2367,
      "frigo": 2368,
      "ajouter": 2369,
      "cueilli": 2370,
      "pirate": 2371,
      "échapper": 2372,
      "intéres": 2373,
      "moyen": 2374,
      "chucho": 2375,
      "fantôme": 2376,
      "ornements": 2377,
      "carburant": 2378,
      "Fre": 2379,
      "Gra": 2380,
      "Gary": 2381,
      "Pendant": 2382,
      "Si": 2383,
      "bol": 2384,
      "belles": 2385,
      "cla": 2386,
      "dir": 2387,
      "gou": 2388,
      "ifi": 2389,
      "jun": 2390,
      "lant": 2391,
      "laire": 2392,
      "pes": 2393,
      "pom": 2394,
      "pag": 2395,
      "peau": 2396,
      "pisc": 2397,
      "patiente": 2398,
      "stu": 2399,
      "yach": 2400,
      "ouette": 2401,
      "rez": 2402,
      "revenir": 2403,
      "anches": 2404,
      "entrer": 2405,
      "laver": 2406,
      "ines": 2407,
      "tri": 2408,
      "neau": 2409,
      "ridi": 2410,
      "pourrons": 2411,
      "sie": 2412,
      "remu": 2413,
      "uel": 2414,
      "cochon": 2415,
      "présent": 2416,
      "prépa": 2417,
      "essayait": 2418,
      "mari": 2419,
      "marron": 2420,
      "pleure": 2421,
      "minut": 2422,
      "arrive": 2423,
      "sautait": 2424,
      "travaille": 2425,
      "venant": 2426,
      "promit": 2427,
      "forme": 2428,
      "continuer": 2429,
      "linge": 2430,
      "canapé": 2431,
      "compag": 2432,
      "conduire": 2433,
      "créer": 2434,
      "merveilleuse": 2435,
      "Quel": 2436,
      "contrari": 2437,
      "descendit": 2438,
      "Partout": 2439,
      "pleura": 2440,
      "atteindre": 2441,
      "attendu": 2442,
      "prêts": 2443,
      "colorées": 2444,
      "reconnaissante": 2445,
      "profond": 2446,
      "scara": 2447,
      "partagé": 2448,
      "trésor": 2449,
      "commencèrent": 2450,
      "gagner": 2451,
      "terminé": 2452,
      "tremble": 2453,
      "enseignant": 2454,
      "tapis": 2455,
      "simplement": 2456,
      "Arrête": 2457,
      "essaie": 2458,
      "confiance": 2459,
      "cacahuète": 2460,
      "téléphone": 2461,
      "Fred": 2462,
      "Grace": 2463,
      "jungle": 2464,
      "piscine": 2465,
      "yacht": 2466,
      "préparer": 2467,
      "Aïe": 2468,
      "Jou": 2469,
      "Sand": 2470,
      "bée": 2471,
      "fabri": 2472,
      "gna": 2473,
      "mine": 2474,
      "noire": 2475,
      "pt": 2476,
      "pat": 2477,
      "pres": 2478,
      "ppo": 2479,
      "ya": 2480,
      "zz": 2481,
      "revint": 2482,
      "andes": 2483,
      "entre": 2484,
      "illumin": 2485,
      "essu": 2486,
      "chaient": 2487,
      "chanc": 2488,
      "issant": 2489,
      "amuse": 2490,
      "prince": 2491,
      "allu": 2492,
      "parce": 2493,
      "riait": 2494,
      "siff": 2495,
      "début": 2496,
      "lions": 2497,
      "action": 2498,
      "ressemblait": 2499,
      "exam": 2500,
      "partage": 2501,
      "?\".": 2502,
      "grandir": 2503,
      "excelle": 2504,
      "contrer": 2505,
      "pique": 2506,
      "allaient": 2507,
      "donc": 2508,
      "empêcher": 2509,
      "marchant": 2510,
      "toile": 2511,
      "ballons": 2512,
      "retourné": 2513,
      "rencontrer": 2514,
      "bruits": 2515,
      "chérie": 2516,
      "tique": 2517,
      "tirent": 2518,
      "tombée": 2519,
      "volait": 2520,
      "blot": 2521,
      "souvenir": 2522,
      "toit": 2523,
      "géant": 2524,
      "géné": 2525,
      "fond": 2526,
      "poussé": 2527,
      "lisse": 2528,
      "compter": 2529,
      "fatiguée": 2530,
      "fatigués": 2531,
      "hoche": 2532,
      "jaunes": 2533,
      "balancer": 2534,
      "goût": 2535,
      "goûter": 2536,
      "devenu": 2537,
      "rond": 2538,
      "Depuis": 2539,
      "bâtons": 2540,
      "pleurait": 2541,
      "étoile": 2542,
      "faci": 2543,
      "grimpé": 2544,
      "émerveillée": 2545,
      "signifi": 2546,
      "nombreux": 2547,
      "souhaitait": 2548,
      "fermement": 2549,
      "chansons": 2550,
      "peindre": 2551,
      "endormi": 2552,
      "collation": 2553,
      "affaires": 2554,
      "métal": 2555,
      "serviette": 2556,
      "tortue": 2557,
      "gilet": 2558,
      "récupérer": 2559,
      "mauvaise": 2560,
      "médicam": 2561,
      "attentivement": 2562,
      "crevette": 2563,
      "compagnie": 2564,
      "scarabée": 2565,
      "Jouons": 2566,
      "Sandy": 2567,
      "ales": 2568,
      "bla": 2569,
      "croy": 2570,
      "fai": 2571,
      "fou": 2572,
      "hie": 2573,
      "iques": 2574,
      "lâ": 2575,
      "lune": 2576,
      "mas": 2577,
      "oo": 2578,
      "opar": 2579,
      "sand": 2580,
      "suit": 2581,
      "tours": 2582,
      "vas": 2583,
      "wi": 2584,
      "épin": 2585,
      "égo": 2586,
      "aida": 2587,
      "ettes": 2588,
      "recu": 2589,
      "entré": 2590,
      "ita": 2591,
      "itaire": 2592,
      "quet": 2593,
      "quin": 2594,
      "art": 2595,
      "esp": 2596,
      "teaux": 2597,
      "journ": 2598,
      "riaient": 2599,
      "riche": 2600,
      "grandes": 2601,
      "rentrèrent": 2602,
      "sieur": 2603,
      "ends": 2604,
      "olon": 2605,
      "lico": 2606,
      "heur": 2607,
      "voulais": 2608,
      "acci": 2609,
      "choco": 2610,
      "vole": 2611,
      "gea": 2612,
      "verrou": 2613,
      "vidé": 2614,
      "violon": 2615,
      "léopar": 2616,
      "rob": 2617,
      "collier": 2618,
      "frus": 2619,
      "plac": 2620,
      "boute": 2621,
      "poulet": 2622,
      "emme": 2623,
      "emporta": 2624,
      "obé": 2625,
      "remercièrent": 2626,
      "véhi": 2627,
      "tempête": 2628,
      "pingou": 2629,
      "appelait": 2630,
      "tirer": 2631,
      "tomba": 2632,
      "inclin": 2633,
      "promenade": 2634,
      "cris": 2635,
      "voyant": 2636,
      "jolis": 2637,
      "plier": 2638,
      "poussa": 2639,
      "grimp": 2640,
      "potame": 2641,
      "note": 2642,
      "valise": 2643,
      "impatient": 2644,
      "applaudit": 2645,
      "différents": 2646,
      "hélico": 2647,
      "oublia": 2648,
      "moteur": 2649,
      "sauv": 2650,
      "œuf": 2651,
      "raconta": 2652,
      "hippo": 2653,
      "retournent": 2654,
      "panier": 2655,
      "posé": 2656,
      "façon": 2657,
      "choisir": 2658,
      "éclabousser": 2659,
      "oreilles": 2660,
      "expliqua": 2661,
      "friand": 2662,
      "coincé": 2663,
      "collations": 2664,
      "métro": 2665,
      "mélang": 2666,
      "flaque": 2667,
      "crochet": 2668,
      "ïste": 2669,
      "Certains": 2670,
      "également": 2671,
      "réussi": 2672,
      "aiguille": 2673,
      "brosse": 2674,
      "médecin": 2675,
      "miniature": 2676,
      "ptère": 2677,
      "facile": 2678,
      "sandwi": 2679,
      "épingle": 2680,
      "égoïste": 2681,
      "chocolat": 2682,
      "léopard": 2683,
      "hélicoptère": 2684,
      "hippopotame": 2685,
      "June": 2686,
      "Leurs": 2687,
      "Mon": 2688,
      "Même": 2689,
      "Polly": 2690,
      "Rache": 2691,
      "Va": 2692,
      "bû": 2693,
      "beur": 2694,
      "cet": 2695,
      "cli": 2696,
      "fâ": 2697,
      "fra": 2698,
      "foyer": 2699,
      "femme": 2700,
      "gâ": 2701,
      "gon": 2702,
      "gor": 2703,
      "lèrent": 2704,
      "limon": 2705,
      "mili": 2706,
      "ode": 2707,
      "pai": 2708,
      "poi": 2709,
      "thon": 2710,
      "ues": 2711,
      "uir": 2712,
      "leure": 2713,
      "enve": 2714,
      "ensoleil": 2715,
      "enier": 2716,
      "onc": 2717,
      "erre": 2718,
      "aurais": 2719,
      "amé": 2720,
      "inky": 2721,
      "inconnu": 2722,
      "oranges": 2723,
      "tran": 2724,
      "joue": 2725,
      "pourras": 2726,
      "pourraient": 2727,
      "grenier": 2728,
      "rentrée": 2729,
      "attendit": 2730,
      "commer": 2731,
      "reuse": 2732,
      "ligne": 2733,
      "sentirent": 2734,
      "couraient": 2735,
      "iennent": 2736,
      "remet": 2737,
      "lop": 2738,
      "illant": 2739,
      "couper": 2740,
      "sépar": 2741,
      "devenait": 2742,
      "congé": 2743,
      "faite": 2744,
      "pignon": 2745,
      "chaleure": 2746,
      "enfil": 2747,
      "enfuir": 2748,
      "permis": 2749,
      "donn": 2750,
      "bouchée": 2751,
      "spéciaux": 2752,
      "carottes": 2753,
      "pleu": 2754,
      "curent": 2755,
      "gué": 2756,
      "faisant": 2757,
      "faisons": 2758,
      "puissante": 2759,
      "admi": 2760,
      "véri": 2761,
      "vécurent": 2762,
      "monta": 2763,
      "champignon": 2764,
      "magiques": 2765,
      "prirent": 2766,
      "nique": 2767,
      "avantage": 2768,
      "utilisa": 2769,
      "mouillée": 2770,
      "propres": 2771,
      "propos": 2772,
      "méchants": 2773,
      "connaissait": 2774,
      "semblaient": 2775,
      "devenus": 2776,
      "raconté": 2777,
      "colorés": 2778,
      "glisser": 2779,
      "frotter": 2780,
      "balançoire": 2781,
      "rencontra": 2782,
      "bulle": 2783,
      "larmes": 2784,
      "trésors": 2785,
      "commencent": 2786,
      "lateur": 2787,
      "malade": 2788,
      "barras": 2789,
      "lourd": 2790,
      "habituel": 2791,
      "doit": 2792,
      "reviend": 2793,
      "plaisir": 2794,
      "regrett": 2795,
      "myrtilles": 2796,
      "classe": 2797,
      "stupi": 2798,
      "minutes": 2799,
      "travailler": 2800,
      "croyait": 2801,
      "accident": 2802,
      "Rachel": 2803,
      "fraî": 2804,
      "limonade": 2805,
      "milieu": 2806,
      "envelop": 2807,
      "ensoleillé": 2808,
      "commerçant": 2809,
      "congélateur": 2810,
      "\",": 2811,
      "Gin": 2812,
      "Laisse": 2813,
      "Rends": 2814,
      "Sop": 2815,
      "abo": 2816,
      "ber": 2817,
      "cis": 2818,
      "cils": 2819,
      "cter": 2820,
      "dont": 2821,
      "drap": 2822,
      "davantage": 2823,
      "fils": 2824,
      "flè": 2825,
      "he": 2826,
      "ip": 2827,
      "iment": 2828,
      "jal": 2829,
      "mien": 2830,
      "nte": 2831,
      "nature": 2832,
      "ry": 2833,
      "rète": 2834,
      "sants": 2835,
      "savent": 2836,
      "spect": 2837,
      "tâ": 2838,
      "taient": 2839,
      "teur": 2840,
      "tôt": 2841,
      "çons": 2842,
      "équ": 2843,
      "envoler": 2844,
      "reau": 2845,
      "ily": 2846,
      "quest": 2847,
      "lade": 2848,
      "arpe": 2849,
      "chés": 2850,
      "eurent": 2851,
      "invent": 2852,
      "trom": 2853,
      "ceint": 2854,
      "gardait": 2855,
      "déchi": 2856,
      "dépend": 2857,
      "ateur": 2858,
      "comprenait": 2859,
      "réaction": 2860,
      "lie": 2861,
      "libre": 2862,
      "sourcils": 2863,
      "acle": 2864,
      "sera": 2865,
      "respe": 2866,
      "verre": 2867,
      "viens": 2868,
      "vigne": 2869,
      "osau": 2870,
      "coqu": 2871,
      "devrait": 2872,
      "devraient": 2873,
      "angle": 2874,
      "confus": 2875,
      "gentiment": 2876,
      "jambe": 2877,
      "sortait": 2878,
      "mach": 2879,
      "forts": 2880,
      "poules": 2881,
      "cab": 2882,
      "cadre": 2883,
      "soud": 2884,
      "gues": 2885,
      "répète": 2886,
      "secrète": 2887,
      "ôture": 2888,
      "ferai": 2889,
      "oyons": 2890,
      "icier": 2891,
      "douleur": 2892,
      "amusantes": 2893,
      "bateaux": 2894,
      "mettent": 2895,
      "rassemb": 2896,
      "ainement": 2897,
      "impoli": 2898,
      "ignent": 2899,
      "saute": 2900,
      "acquiesc": 2901,
      "nuage": 2902,
      "importante": 2903,
      "arrivèrent": 2904,
      "construit": 2905,
      "raconter": 2906,
      "descendre": 2907,
      "Emily": 2908,
      "écharpe": 2909,
      "singe": 2910,
      "hibou": 2911,
      "accepté": 2912,
      "espéraient": 2913,
      "certains": 2914,
      "appartenait": 2915,
      "préparé": 2916,
      "soulagé": 2917,
      "ancienne": 2918,
      "observer": 2919,
      "rentrés": 2920,
      "excuser": 2921,
      "canards": 2922,
      "fonctionner": 2923,
      "crabe": 2924,
      "peinture": 2925,
      "clôture": 2926,
      "taureau": 2927,
      "passeport": 2928,
      "éloigner": 2929,
      "océan": 2930,
      "policier": 2931,
      "dinosau": 2932,
      "autocollants": 2933,
      "poilu": 2934,
      "étudier": 2935,
      "abandonner": 2936,
      "ridicule": 2937,
      "trembler": 2938,
      "excellente": 2939,
      "généreux": 2940,
      "journal": 2941,
      "sandwiches": 2942,
      "paix": 2943,
      "stupide": 2944,
      "Sophie": 2945,
      "jalou": 2946,
      "Dan": 2947,
      "Pau": 2948,
      "Su": 2949,
      "aé": 2950,
      "boire": 2951,
      "dat": 2952,
      "fl": 2953,
      "gant": 2954,
      "igne": 2955,
      "ième": 2956,
      "mam": 2957,
      "neu": 2958,
      "orer": 2959,
      "pait": 2960,
      "poli": 2961,
      "rure": 2962,
      "ruis": 2963,
      "rinaire": 2964,
      "sè": 2965,
      "soir": 2966,
      "ts": 2967,
      "tam": 2968,
      "test": 2969,
      "tombe": 2970,
      "ule": 2971,
      "uses": 2972,
      "vus": 2973,
      "vété": 2974,
      "we": 2975,
      "xim": 2976,
      "yez": 2977,
      "zag": 2978,
      "équi": 2979,
      "ûte": 2980,
      "aid": 2981,
      "rela": 2982,
      "recra": 2983,
      "enter": 2984,
      "ert": 2985,
      "sel": 2986,
      "uni": 2987,
      "changer": 2988,
      "étag": 2989,
      "issante": 2990,
      "invit": 2991,
      "indépend": 2992,
      "prét": 2993,
      "sation": 2994,
      "pardonner": 2995,
      "cir": 2996,
      "joua": 2997,
      "graine": 2998,
      "dul": 2999,
      "couteau": 3000,
      "serrée": 3001,
      "extérieur": 3002,
      "viennent": 3003,
      "légu": 3004,
      "roport": 3005,
      "chercha": 3006,
      "partait": 3007,
      "terri": 3008,
      "monsieur": 3009,
      "proxim": 3010,
      "cope": 3011,
      "ficelle": 3012,
      "devaient": 3013,
      "mécan": 3014,
      "soyez": 3015,
      "perdre": 3016,
      "fron": 3017,
      "gentilles": 3018,
      "soldat": 3019,
      "rouges": 3020,
      "maître": 3021,
      "pouce": 3022,
      "cacha": 3023,
      "caché": 3024,
      "essayant": 3025,
      "marin": 3026,
      "cercle": 3027,
      "crie": 3028,
      "objet": 3029,
      "accro": 3030,
      "accue": 3031,
      "laissa": 3032,
      "continuèrent": 3033,
      "attrape": 3034,
      "écoutait": 3035,
      "entendirent": 3036,
      "tourna": 3037,
      "cras": 3038,
      "inst": 3039,
      "écrit": 3040,
      "rass": 3041,
      "sûre": 3042,
      "ances": 3043,
      "sup": 3044,
      "puzz": 3045,
      "compét": 3046,
      "Regardez": 3047,
      "blesser": 3048,
      "créati": 3049,
      "découvrit": 3050,
      "jeter": 3051,
      "vrai": 3052,
      "remplie": 3053,
      "lèvres": 3054,
      "raison": 3055,
      "assit": 3056,
      "loup": 3057,
      "avions": 3058,
      "abeilles": 3059,
      "igzag": 3060,
      "appartient": 3061,
      "soufflait": 3062,
      "apparut": 3063,
      "endormit": 3064,
      "creus": 3065,
      "secoua": 3066,
      "fusée": 3067,
      "taupe": 3068,
      "gaz": 3069,
      "pilule": 3070,
      "retrouvé": 3071,
      "piration": 3072,
      "produit": 3073,
      "Faisons": 3074,
      "bougeait": 3075,
      "nœud": 3076,
      "profiter": 3077,
      "Beep": 3078,
      "déplacer": 3079,
      "Peter": 3080,
      "Charlie": 3081,
      "paisible": 3082,
      "intéressant": 3083,
      "médicament": 3084,
      "faible": 3085,
      "placard": 3086,
      "beurre": 3087,
      "odeur": 3088,
      "améli": 3089,
      "drapeau": 3090,
      "spectacle": 3091,
      "cabane": 3092,
      "soudainement": 3093,
      "jaloux": 3094,
      "Danny": 3095,
      "aéroport": 3096,
      "flûte": 3097,
      "mamans": 3098,
      "ruisseau": 3099,
      "vétérinaire": 3100,
      "équipe": 3101,
      "étagère": 3102,
      "indépendante": 3103,
      "légumes": 3104,
      "proximité": 3105,
      "mécanici": 3106,
      "maîtresse": 3107,
      "At": 3108,
      "Binky": 3109,
      "Comme": 3110,
      "Den": 3111,
      "Hen": 3112,
      "Per": 3113,
      "Sno": 3114,
      "Tiens": 3115,
      "Vou": 3116,
      "adul": 3117,
      "brer": 3118,
      "boisson": 3119,
      "cat": 3120,
      "dan": 3121,
      "fe": 3122,
      "fo": 3123,
      "fle": 3124,
      "foire": 3125,
      "ote": 3126,
      "rai": 3127,
      "ris": 3128,
      "rav": 3129,
      "ravi": 3130,
      "sci": 3131,
      "sins": 3132,
      "toir": 3133,
      "tir": 3134,
      "vag": 3135,
      "vir": 3136,
      "vac": 3137,
      "vendre": 3138,
      "wy": 3139,
      "zoo": 3140,
      "île": 3141,
      "leri": 3142,
      "aidée": 3143,
      "ilà": 3144,
      "unique": 3145,
      "chouette": 3146,
      "isier": 3147,
      "euil": 3148,
      "tez": 3149,
      "inhabituel": 3150,
      "quelle": 3151,
      "prim": 3152,
      "riant": 3153,
      "rive": 3154,
      "dég": 3155,
      "dégoû": 3156,
      "toucha": 3157,
      "maisons": 3158,
      "compli": 3159,
      "réser": 3160,
      "résou": 3161,
      "réconfort": 3162,
      "libé": 3163,
      "!\".": 3164,
      "sert": 3165,
      "sentie": 3166,
      "courge": 3167,
      "autor": 3168,
      "autant": 3169,
      "vitesse": 3170,
      "trouvaient": 3171,
      "rare": 3172,
      "radi": 3173,
      "semaine": 3174,
      "proche": 3175,
      "péda": 3176,
      "beaux": 3177,
      "vues": 3178,
      "filer": 3179,
      "amusé": 3180,
      "mignon": 3181,
      "disant": 3182,
      "célè": 3183,
      "céleri": 3184,
      "donnait": 3185,
      "frais": 3186,
      "fruit": 3187,
      "bonnes": 3188,
      "boue": 3189,
      "bout": 3190,
      "boutons": 3191,
      "solide": 3192,
      "emb": 3193,
      "Jacky": 3194,
      "soupi": 3195,
      "Quelle": 3196,
      "nerveux": 3197,
      "marche": 3198,
      "cerisier": 3199,
      "Joy": 3200,
      "crient": 3201,
      "Enfin": 3202,
      "retournée": 3203,
      "finit": 3204,
      "blanche": 3205,
      "seuse": 3206,
      "délicat": 3207,
      "approche": 3208,
      "approché": 3209,
      "promenant": 3210,
      "promenaient": 3211,
      "ennes": 3212,
      "rends": 3213,
      "instant": 3214,
      "compte": 3215,
      "pensaient": 3216,
      "rug": 3217,
      "ruche": 3218,
      "frères": 3219,
      "fourrure": 3220,
      "couvertures": 3221,
      "disparut": 3222,
      "modes": 3223,
      "apprécié": 3224,
      "apprécièrent": 3225,
      "murs": 3226,
      "doivent": 3227,
      "retournèrent": 3228,
      "difficiles": 3229,
      "réveilla": 3230,
      "cassés": 3231,
      "frotte": 3232,
      "sucre": 3233,
      "détendre": 3234,
      "cintre": 3235,
      "buissons": 3236,
      "coussins": 3237,
      "doigts": 3238,
      "rencontré": 3239,
      "assise": 3240,
      "assiette": 3241,
      "soulagée": 3242,
      "manière": 3243,
      "large": 3244,
      "devriez": 3245,
      "pilote": 3246,
      "guerrier": 3247,
      "tendu": 3248,
      "plumes": 3249,
      "Alice": 3250,
      "remplit": 3251,
      "fauteuil": 3252,
      "avancer": 3253,
      "mystérieux": 3254,
      "triangle": 3255,
      "Freddy": 3256,
      "pattes": 3257,
      "robot": 3258,
      "bouteille": 3259,
      "véhicule": 3260,
      "friandises": 3261,
      "mélangeur": 3262,
      "admirer": 3263,
      "bulles": 3264,
      "tâche": 3265,
      "dinosaure": 3266,
      "weet": 3267,
      "soldats": 3268,
      "mécanicien": 3269,
      "Denise": 3270,
      "Henry": 3271,
      "Snowy": 3272,
      "Voulez": 3273,
      "résoudre": 3274,
      "radio": 3275,
      "Ac": 3276,
      "Ain": 3277,
      "Aide": 3278,
      "Claire": 3279,
      "Donne": 3280,
      "Isa": 3281,
      "Jus": 3282,
      "Lo": 3283,
      "Ou": 3284,
      "Qui": 3285,
      "Rus": 3286,
      "by": 3287,
      "cau": 3288,
      "couver": 3289,
      "détr": 3290,
      "fac": 3291,
      "foin": 3292,
      "gue": 3293,
      "got": 3294,
      "hin": 3295,
      "jà": 3296,
      "kay": 3297,
      "mait": 3298,
      "mus": 3299,
      "mort": 3300,
      "moin": 3301,
      "opé": 3302,
      "odor": 3303,
      "pain": 3304,
      "rattraper": 3305,
      "rhin": 3306,
      "spag": 3307,
      "tint": 3308,
      "vaient": 3309,
      "vœu": 3310,
      "yé": 3311,
      "éner": 3312,
      "épau": 3313,
      "aies": 3314,
      "aises": 3315,
      "enez": 3316,
      "entour": 3317,
      "ourdi": 3318,
      "escal": 3319,
      "essaient": 3320,
      "étre": 3321,
      "étais": 3322,
      "étince": 3323,
      "étourdi": 3324,
      "isit": 3325,
      "avais": 3326,
      "ind": 3327,
      "indi": 3328,
      "innie": 3329,
      "orig": 3330,
      "asi": 3331,
      "assoient": 3332,
      "trée": 3333,
      "prun": 3334,
      "ouvrirent": 3335,
      "appu": 3336,
      "apporté": 3337,
      "parlent": 3338,
      "jouons": 3339,
      "rideaux": 3340,
      "pourrez": 3341,
      "imprim": 3342,
      "déjà": 3343,
      "agne": 3344,
      "comprit": 3345,
      "lieu": 3346,
      "brind": 3347,
      "voulez": 3348,
      "accompli": 3349,
      "courges": 3350,
      "aimant": 3351,
      "vivre": 3352,
      "peign": 3353,
      "derne": 3354,
      "remont": 3355,
      "illaient": 3356,
      "proté": 3357,
      "conse": 3358,
      "médu": 3359,
      "otball": 3360,
      "allon": 3361,
      "solu": 3362,
      "roue": 3363,
      "roule": 3364,
      "rouille": 3365,
      "roulé": 3366,
      "embarras": 3367,
      "emprun": 3368,
      "souci": 3369,
      "spéciales": 3370,
      "chiens": 3371,
      "marchaient": 3372,
      "cartes": 3373,
      "cargot": 3374,
      "chantent": 3375,
      "arrivait": 3376,
      "nées": 3377,
      "ventre": 3378,
      "cube": 3379,
      "dessous": 3380,
      "montagne": 3381,
      "Mae": 3382,
      "iers": 3383,
      "promis": 3384,
      "ferait": 3385,
      "malodor": 3386,
      "ombres": 3387,
      "contents": 3388,
      "écoute": 3389,
      "chiff": 3390,
      "plantes": 3391,
      "mission": 3392,
      "sacs": 3393,
      "croire": 3394,
      "calmes": 3395,
      "voyons": 3396,
      "réponse": 3397,
      "écl": 3398,
      "souvent": 3399,
      "allées": 3400,
      "emmenait": 3401,
      "poussi": 3402,
      "ettent": 3403,
      "blessée": 3404,
      "conduit": 3405,
      "froide": 3406,
      "oublier": 3407,
      "découverte": 3408,
      "lèvre": 3409,
      "œufs": 3410,
      "moderne": 3411,
      "mangent": 3412,
      "mangèrent": 3413,
      "incroyables": 3414,
      "apprécia": 3415,
      "assurer": 3416,
      "tente": 3417,
      "intelligents": 3418,
      "coloré": 3419,
      "lumières": 3420,
      "tissu": 3421,
      "panneau": 3422,
      "réveillé": 3423,
      "déter": 3424,
      "choisit": 3425,
      "normal": 3426,
      "partagèrent": 3427,
      "verts": 3428,
      "drôles": 3429,
      "illie": 3430,
      "Pouvez": 3431,
      "expliqué": 3432,
      "anciennes": 3433,
      "première": 3434,
      "gagné": 3435,
      "maladroit": 3436,
      "attacher": 3437,
      "flotter": 3438,
      "itié": 3439,
      "produisit": 3440,
      "océros": 3441,
      "emmè": 3442,
      "organiser": 3443,
      "acide": 3444,
      "naviguer": 3445,
      "pâle": 3446,
      "renversé": 3447,
      "trébu": 3448,
      "pays": 3449,
      "envoyer": 3450,
      "repéré": 3451,
      "cueillir": 3452,
      "contrariée": 3453,
      "chanceux": 3454,
      "espèrent": 3455,
      "vidéo": 3456,
      "bûche": 3457,
      "poids": 3458,
      "tranqu": 3459,
      "remettre": 3460,
      "enfila": 3461,
      "guérir": 3462,
      "regrettaient": 3463,
      "accidentellement": 3464,
      "équili": 3465,
      "tampon": 3466,
      "rassasi": 3467,
      "puzzle": 3468,
      "football": 3469,
      "vacances": 3470,
      "dégoûtant": 3471,
      "célèbre": 3472,
      "Ainsi": 3473,
      "Aidez": 3474,
      "Isabel": 3475,
      "Lola": 3476,
      "Russel": 3477,
      "couvercle": 3478,
      "kayak": 3479,
      "moins": 3480,
      "rhinocéros": 3481,
      "spagh": 3482,
      "origin": 3483,
      "Blo": 3484,
      "Eh": 3485,
      "Lu": 3486,
      "Lui": 3487,
      "Ours": 3488,
      "True": 3489,
      "bour": 3490,
      "bis": 3491,
      "bri": 3492,
      "batt": 3493,
      "bail": 3494,
      "ccin": 3495,
      "danger": 3496,
      "far": 3497,
      "fis": 3498,
      "gg": 3499,
      "gê": 3500,
      "hô": 3501,
      "hor": 3502,
      "hée": 3503,
      "jut": 3504,
      "mut": 3505,
      "oga": 3506,
      "pelle": 3507,
      "range": 3508,
      "râteau": 3509,
      "sen": 3510,
      "stique": 3511,
      "tiennent": 3512,
      "uette": 3513,
      "uyeux": 3514,
      "uellement": 3515,
      "vèrent": 3516,
      "vage": 3517,
      "yoga": 3518,
      "zè": 3519,
      "âce": 3520,
      "éra": 3521,
      "éni": 3522,
      "êter": 3523,
      "aidait": 3524,
      "envie": 3525,
      "envolé": 3526,
      "rec": 3527,
      "refaire": 3528,
      "éte": 3529,
      "auc": 3530,
      "amour": 3531,
      "amusa": 3532,
      "tel": 3533,
      "ombre": 3534,
      "trans": 3535,
      "tronc": 3536,
      "oie": 3537,
      "sachant": 3538,
      "dansait": 3539,
      "passaient": 3540,
      "parlait": 3541,
      "pardon": 3542,
      "riz": 3543,
      "sonne": 3544,
      "poursui": 3545,
      "poursuivit": 3546,
      "grange": 3547,
      "déç": 3548,
      "usine": 3549,
      "comprends": 3550,
      "révé": 3551,
      "brun": 3552,
      "voulions": 3553,
      "serai": 3554,
      "serie": 3555,
      "resse": 3556,
      "courage": 3557,
      "courrier": 3558,
      "expé": 3559,
      "aimes": 3560,
      "vide": 3561,
      "partirent": 3562,
      "trouvée": 3563,
      "terr": 3564,
      "osité": 3565,
      "demandent": 3566,
      "séri": 3567,
      "nomm": 3568,
      "coccin": 3569,
      "excla": 3570,
      "excusa": 3571,
      "souriant": 3572,
      "mign": 3573,
      "excitante": 3574,
      "dispon": 3575,
      "frag": 3576,
      "plastique": 3577,
      "poê": 3578,
      "bec": 3579,
      "sortis": 3580,
      "sortirent": 3581,
      "mace": 3582,
      "poul": 3583,
      "poule": 3584,
      "cachée": 3585,
      "soupira": 3586,
      "ordin": 3587,
      "trophée": 3588,
      "crier": 3589,
      "chanté": 3590,
      "mince": 3591,
      "sautent": 3592,
      "boîtes": 3593,
      "admir": 3594,
      "accrocher": 3595,
      "ramper": 3596,
      "somno": 3597,
      "douée": 3598,
      "longs": 3599,
      "effrayer": 3600,
      "précieuses": 3601,
      "nid": 3602,
      "ennuyeux": 3603,
      "tourné": 3604,
      "pensent": 3605,
      "chauff": 3606,
      "ouverts": 3607,
      "souvient": 3608,
      "curiosité": 3609,
      "géni": 3610,
      "mouche": 3611,
      "paquet": 3612,
      "lisses": 3613,
      "rience": 3614,
      "grimace": 3615,
      "ettis": 3616,
      "inquiet": 3617,
      "impatiente": 3618,
      "applaudirent": 3619,
      "oublie": 3620,
      "joign": 3621,
      "balance": 3622,
      "sauce": 3623,
      "tableau": 3624,
      "cuisiner": 3625,
      "fontaine": 3626,
      "illages": 3627,
      "construis": 3628,
      "appelles": 3629,
      "acheté": 3630,
      "Emmy": 3631,
      "pleurent": 3632,
      "désor": 3633,
      "échanger": 3634,
      "attendent": 3635,
      "occupé": 3636,
      "âteaux": 3637,
      "tisserie": 3638,
      "jupe": 3639,
      "dangereuse": 3640,
      "pause": 3641,
      "pauvre": 3642,
      "oreiller": 3643,
      "secoué": 3644,
      "arrêtez": 3645,
      "serviable": 3646,
      "aimerais": 3647,
      "pital": 3648,
      "imagina": 3649,
      "imagination": 3650,
      "bague": 3651,
      "baguette": 3652,
      "explorant": 3653,
      "filé": 3654,
      "citrouille": 3655,
      "dinde": 3656,
      "traî": 3657,
      "autocollant": 3658,
      "emmène": 3659,
      "nœuds": 3660,
      "navigu": 3661,
      "pâtisserie": 3662,
      "scintillait": 3663,
      "fumée": 3664,
      "rangé": 3665,
      "réparé": 3666,
      "applaudissait": 3667,
      "violette": 3668,
      "grognon": 3669,
      "célébrer": 3670,
      "bougie": 3671,
      "épicée": 3672,
      "rebondir": 3673,
      "Arrêtez": 3674,
      "blague": 3675,
      "frustrée": 3676,
      "obéissante": 3677,
      "pingouin": 3678,
      "grimpa": 3679,
      "gonf": 3680,
      "pleuvoir": 3681,
      "respecter": 3682,
      "coquillages": 3683,
      "Paul": 3684,
      "Susie": 3685,
      "sèche": 3686,
      "objets": 3687,
      "réservoir": 3688,
      "réconforter": 3689,
      "autoritaire": 3690,
      "brindilles": 3691,
      "emprunter": 3692,
      "malodorant": 3693,
      "chiffon": 3694,
      "détermin": 3695,
      "spaghettis": 3696,
      "Bloom": 3697,
      "Lulu": 3698,
      "bisou": 3699,
      "farine": 3700,
      "hôpital": 3701,
      "mutuellement": 3702,
      "sensation": 3703,
      "zèbre": 3704,
      "expérience": 3705,
      "coccinelle": 3706,
      "disponible": 3707,
      "Beur": 3708,
      "Dans": 3709,
      "Kate": 3710,
      "Mer": 3711,
      "Mamie": 3712,
      "Milly": 3713,
      "Millie": 3714,
      "Pi": 3715,
      "Sur": 3716,
      "Ton": 3717,
      "Vo": 3718,
      "Zigzag": 3719,
      "aître": 3720,
      "aïe": 3721,
      "bus": 3722,
      "bac": 3723,
      "bête": 3724,
      "ck": 3725,
      "cky": 3726,
      "flam": 3727,
      "gau": 3728,
      "gles": 3729,
      "goy": 3730,
      "haie": 3731,
      "irer": 3732,
      "lang": 3733,
      "laine": 3734,
      "mê": 3735,
      "meu": 3736,
      "mand": 3737,
      "messa": 3738,
      "mété": 3739,
      "net": 3740,
      "nag": 3741,
      "nons": 3742,
      "ps": 3743,
      "pét": 3744,
      "pont": 3745,
      "plon": 3746,
      "pâte": 3747,
      "puits": 3748,
      "rè": 3749,
      "rét": 3750,
      "roi": 3751,
      "ront": 3752,
      "sy": 3753,
      "sure": 3754,
      "sens": 3755,
      "tami": 3756,
      "vœ": 3757,
      "zip": 3758,
      "écur": 3759,
      "émerveille": 3760,
      "envieux": 3761,
      "revu": 3762,
      "rejoindre": 3763,
      "requin": 3764,
      "années": 3765,
      "quait": 3766,
      "quit": 3767,
      "quant": 3768,
      "quée": 3769,
      "uns": 3770,
      "arné": 3771,
      "espère": 3772,
      "espiè": 3773,
      "chons": 3774,
      "cheuse": 3775,
      "châteaux": 3776,
      "iser": 3777,
      "ampoule": 3778,
      "ora": 3779,
      "trait": 3780,
      "quelet": 3781,
      "prunes": 3782,
      "ouvrant": 3783,
      "apporter": 3784,
      "apprennent": 3785,
      "apporta": 3786,
      "parla": 3787,
      "joueur": 3788,
      "rivage": 3789,
      "pourra": 3790,
      "graci": 3791,
      "grâce": 3792,
      "silen": 3793,
      "déverrou": 3794,
      "chef": 3795,
      "combien": 3796,
      "réci": 3797,
      "réchauff": 3798,
      "dut": 3799,
      "brû": 3800,
      "branches": 3801,
      "voulons": 3802,
      "seraient": 3803,
      "respect": 3804,
      "vertes": 3805,
      "cherchant": 3806,
      "partis": 3807,
      "rempla": 3808,
      "loint": 3809,
      "osh": 3810,
      "dix": 3811,
      "coupable": 3812,
      "noms": 3813,
      "beauté": 3814,
      "excuses": 3815,
      "fie": 3816,
      "jeep": 3817,
      "amusants": 3818,
      "pile": 3819,
      "amies": 3820,
      "midi": 3821,
      "excitant": 3822,
      "chaleur": 3823,
      "donnent": 3824,
      "plateau": 3825,
      "popu": 3826,
      "décident": 3827,
      "jambes": 3828,
      "roula": 3829,
      "poudre": 3830,
      "poubelle": 3831,
      "essayèrent": 3832,
      "tristement": 3833,
      "carré": 3834,
      "cercles": 3835,
      "cerceau": 3836,
      "crièrent": 3837,
      "rappro": 3838,
      "vase": 3839,
      "longues": 3840,
      "cules": 3841,
      "remercient": 3842,
      "visages": 3843,
      "moire": 3844,
      "animés": 3845,
      "aboie": 3846,
      "force": 3847,
      "chatou": 3848,
      "casse": 3849,
      "casque": 3850,
      "approchée": 3851,
      "regardaient": 3852,
      "mettait": 3853,
      "rendent": 3854,
      "craie": 3855,
      "piège": 3856,
      "inspiration": 3857,
      "santé": 3858,
      "travaillèrent": 3859,
      "suff": 3860,
      "emmenée": 3861,
      "fièrement": 3862,
      "comptoir": 3863,
      "acharné": 3864,
      "inquiét": 3865,
      "corps": 3866,
      "réaliser": 3867,
      "ignor": 3868,
      "fourmis": 3869,
      "sauver": 3870,
      "nulle": 3871,
      "numé": 3872,
      "goûté": 3873,
      "papillons": 3874,
      "ronde": 3875,
      "sty": 3876,
      "disparaisse": 3877,
      "moelle": 3878,
      "échange": 3879,
      "chaussette": 3880,
      "planète": 3881,
      "glissa": 3882,
      "glissé": 3883,
      "dormait": 3884,
      "face": 3885,
      "joyeuse": 3886,
      "accepter": 3887,
      "entraî": 3888,
      "pêche": 3889,
      "souhaita": 3890,
      "partagent": 3891,
      "assirent": 3892,
      "secoue": 3893,
      "jogg": 3894,
      "ancien": 3895,
      "mélange": 3896,
      "mélanger": 3897,
      "flaques": 3898,
      "quatre": 3899,
      "offert": 3900,
      "lourde": 3901,
      "nagea": 3902,
      "embrassent": 3903,
      "embrassé": 3904,
      "Becky": 3905,
      "bruyant": 3906,
      "conduisit": 3907,
      "baiser": 3908,
      "baissa": 3909,
      "bougies": 3910,
      "occupée": 3911,
      "prenant": 3912,
      "dirigea": 3913,
      "pointu": 3914,
      "pointa": 3915,
      "amusement": 3916,
      "siffler": 3917,
      "examin": 3918,
      "blottis": 3919,
      "signifie": 3920,
      "masque": 3921,
      "flèche": 3922,
      "questions": 3923,
      "trompe": 3924,
      "ceinture": 3925,
      "machine": 3926,
      "acquiescent": 3927,
      "creuser": 3928,
      "Personne": 3929,
      "déguis": 3930,
      "modeste": 3931,
      "Accep": 3932,
      "entourait": 3933,
      "protéger": 3934,
      "tranquille": 3935,
      "énig": 3936,
      "fragile": 3937,
      "poêle": 3938,
      "somnolent": 3939,
      "génial": 3940,
      "Beurk": 3941,
      "Meri": 3942,
      "flamme": 3943,
      "message": 3944,
      "météo": 3945,
      "tamia": 3946,
      "vœux": 3947,
      "écurie": 3948,
      "émerveillement": 3949,
      "quelette": 3950,
      "jogging": 3951,
      "Fi": 3952,
      "Homme": 3953,
      "Kari": 3954,
      "Let": 3955,
      "Mme": 3956,
      "Mim": 3957,
      "Ro": 3958,
      "Rita": 3959,
      "Sois": 3960,
      "baie": 3961,
      "bœuf": 3962,
      "caut": 3963,
      "caux": 3964,
      "fir": 3965,
      "gans": 3966,
      "gomme": 3967,
      "gile": 3968,
      "laid": 3969,
      "mme": 3970,
      "mob": 3971,
      "mordre": 3972,
      "nou": 3973,
      "nours": 3974,
      "ole": 3975,
      "pis": 3976,
      "tin": 3977,
      "tor": 3978,
      "tal": 3979,
      "tage": 3980,
      "tira": 3981,
      "tart": 3982,
      "veur": 3983,
      "vante": 3984,
      "vinrent": 3985,
      "xie": 3986,
      "yau": 3987,
      "yaient": 3988,
      "Écou": 3989,
      "ètes": 3990,
      "émission": 3991,
      "lequel": 3992,
      "reç": 3993,
      "refus": 3994,
      "deviennent": 3995,
      "debout": 3996,
      "entier": 3997,
      "quart": 3998,
      "sez": 3999,
      "seaux": 4000,
      "arro": 4001,
      "artis": 4002,
      "armoire": 4003,
      "argile": 4004,
      "char": 4005,
      "choir": 4006,
      "cheur": 4007,
      "éton": 4008,
      "étinc": 4009,
      "amère": 4010,
      "infir": 4011,
      "oix": 4012,
      "lescope": 4013,
      "sales": 4014,
      "lux": 4015,
      "dansant": 4016,
      "apprirent": 4017,
      "parte": 4018,
      "parlé": 4019,
      "pardonne": 4020,
      "parade": 4021,
      "cevoir": 4022,
      "cieux": 4023,
      "ciseaux": 4024,
      "sonner": 4025,
      "Lilly": 4026,
      "poursuivre": 4027,
      "gron": 4028,
      "immob": 4029,
      "garçons": 4030,
      "atter": 4031,
      "atue": 4032,
      "agit": 4033,
      "petites": 4034,
      "toupi": 4035,
      "compris": 4036,
      "compl": 4037,
      "liqui": 4038,
      "liver": 4039,
      "surtout": 4040,
      "irait": 4041,
      "aines": 4042,
      "sourde": 4043,
      "voleur": 4044,
      "ressentir": 4045,
      "restait": 4046,
      "restée": 4047,
      "exerci": 4048,
      "gemme": 4049,
      "viend": 4050,
      "vivent": 4051,
      "vives": 4052,
      "lég": 4053,
      "tuyau": 4054,
      "télescope": 4055,
      "remue": 4056,
      "coups": 4057,
      "coinc": 4058,
      "fichait": 4059,
      "commencer": 4060,
      "conc": 4061,
      "faits": 4062,
      "amica": 4063,
      "semblent": 4064,
      "Ann": 4065,
      "disque": 4066,
      "colomb": 4067,
      "colombe": 4068,
      "tenu": 4069,
      "donnée": 4070,
      "précaut": 4071,
      "décide": 4072,
      "boule": 4073,
      "maïs": 4074,
      "cadeaux": 4075,
      "ordinaire": 4076,
      "deuxième": 4077,
      "chantait": 4078,
      "sautant": 4079,
      "traver": 4080,
      "lys": 4081,
      "monté": 4082,
      "rêvant": 4083,
      "fera": 4084,
      "ramasse": 4085,
      "laissent": 4086,
      "tonneau": 4087,
      "icia": 4088,
      "ètement": 4089,
      "tire": 4090,
      "précieux": 4091,
      "approchant": 4092,
      "plant": 4093,
      "tourn": 4094,
      "cru": 4095,
      "crâ": 4096,
      "pièces": 4097,
      "glacière": 4098,
      "sujet": 4099,
      "mouchoir": 4100,
      "mordit": 4101,
      "mordu": 4102,
      "griff": 4103,
      "grign": 4104,
      "ruin": 4105,
      "étranger": 4106,
      "étranges": 4107,
      "toboggans": 4108,
      "différente": 4109,
      "jeté": 4110,
      "sauvé": 4111,
      "vraie": 4112,
      "regardez": 4113,
      "devenue": 4114,
      "statue": 4115,
      "Parce": 4116,
      "atteign": 4117,
      "atteigne": 4118,
      "attendait": 4119,
      "voisins": 4120,
      "bleues": 4121,
      "planer": 4122,
      "visiter": 4123,
      "pansement": 4124,
      "reconnaissants": 4125,
      "réveillait": 4126,
      "frotta": 4127,
      "choisi": 4128,
      "signé": 4129,
      "signer": 4130,
      "nettoy": 4131,
      "écrivit": 4132,
      "préparait": 4133,
      "excusent": 4134,
      "lumineux": 4135,
      "offrir": 4136,
      "peintures": 4137,
      "honn": 4138,
      "biscuits": 4139,
      "blessés": 4140,
      "barbe": 4141,
      "billet": 4142,
      "cailloux": 4143,
      "sucrées": 4144,
      "assura": 4145,
      "ramener": 4146,
      "mauvaises": 4147,
      "rateur": 4148,
      "impressionné": 4149,
      "Certaines": 4150,
      "organisé": 4151,
      "mâcher": 4152,
      "salua": 4153,
      "restés": 4154,
      "applaudissent": 4155,
      "Pete": 4156,
      "Charles": 4157,
      "précipitée": 4158,
      "occuper": 4159,
      "lança": 4160,
      "repéra": 4161,
      "mystérieuse": 4162,
      "discuter": 4163,
      "mariés": 4164,
      "fabriquer": 4165,
      "examiner": 4166,
      "signifiait": 4167,
      "poulets": 4168,
      "erreur": 4169,
      "chaleureux": 4170,
      "chaleureuse": 4171,
      "vérifier": 4172,
      "fraîche": 4173,
      "Gina": 4174,
      "berceau": 4175,
      "rassembla": 4176,
      "terrible": 4177,
      "gentillesse": 4178,
      "crash": 4179,
      "suppli": 4180,
      "compétiti": 4181,
      "améliorer": 4182,
      "adulte": 4183,
      "vagues": 4184,
      "opéra": 4185,
      "énerg": 4186,
      "escaliers": 4187,
      "étourdie": 4188,
      "imprimer": 4189,
      "méduse": 4190,
      "éclair": 4191,
      "battit": 4192,
      "sérieux": 4193,
      "nommés": 4194,
      "exclama": 4195,
      "mignonne": 4196,
      "ordinateur": 4197,
      "oreillers": 4198,
      "gonfler": 4199,
      "déterminée": 4200,
      "Pixie": 4201,
      "Voilà": 4202,
      "goyave": 4203,
      "mêmes": 4204,
      "meubles": 4205,
      "remplacer": 4206,
      "populaire": 4207,
      "stylo": 4208,
      "moelleux": 4209,
      "déguiser": 4210,
      "Accepteur": 4211,
      "énigme": 4212,
      "Fiable": 4213,
      "Leticia": 4214,
      "Mimi": 4215,
      "Rosie": 4216,
      "nounours": 4217,
      "refusé": 4218,
      "quartier": 4219,
      "infirmière": 4220,
      "toupie": 4221,
      "liquide": 4222,
      "coincée": 4223,
      "colombes": 4224,
      "précaution": 4225,
      "'.": 4226,
      "Avant": 4227,
      "Bill": 4228,
      "Cin": 4229,
      "Di": 4230,
      "Heu": 4231,
      "Josh": 4232,
      "Lin": 4233,
      "Lac": 4234,
      "Mit": 4235,
      "Mlle": 4236,
      "Mar": 4237,
      "Mal": 4238,
      "Minnie": 4239,
      "Nora": 4240,
      "Oliver": 4241,
      "Peu": 4242,
      "Rou": 4243,
      "Se": 4244,
      "Tr": 4245,
      "Tou": 4246,
      "Tilly": 4247,
      "Voyons": 4248,
      "ala": 4249,
      "aler": 4250,
      "atement": 4251,
      "bans": 4252,
      "cap": 4253,
      "ceux": 4254,
      "cessa": 4255,
      "cuire": 4256,
      "fau": 4257,
      "fas": 4258,
      "fest": 4259,
      "fasse": 4260,
      "fuse": 4261,
      "gis": 4262,
      "gés": 4263,
      "houette": 4264,
      "iend": 4265,
      "jette": 4266,
      "jettent": 4267,
      "kla": 4268,
      "lours": 4269,
      "lanc": 4270,
      "mm": 4271,
      "morte": 4272,
      "pre": 4273,
      "pent": 4274,
      "pant": 4275,
      "pages": 4276,
      "patte": 4277,
      "patient": 4278,
      "renf": 4279,
      "rint": 4280,
      "sil": 4281,
      "sta": 4282,
      "scurité": 4283,
      "tord": 4284,
      "tweet": 4285,
      "ude": 4286,
      "xi": 4287,
      "yons": 4288,
      "zar": 4289,
      "zard": 4290,
      "âtre": 4291,
      "ège": 4292,
      "èmes": 4293,
      "écar": 4294,
      "épon": 4295,
      "enre": 4296,
      "encourag": 4297,
      "envir": 4298,
      "reil": 4299,
      "relaient": 4300,
      "revenu": 4301,
      "onte": 4302,
      "entrée": 4303,
      "ite": 4304,
      "unis": 4305,
      "las": 4306,
      "laby": 4307,
      "laveur": 4308,
      "esprit": 4309,
      "espa": 4310,
      "chari": 4311,
      "étui": 4312,
      "étage": 4313,
      "issa": 4314,
      "isser": 4315,
      "ister": 4316,
      "issons": 4317,
      "aver": 4318,
      "amer": 4319,
      "amment": 4320,
      "amours": 4321,
      "inten": 4322,
      "prati": 4323,
      "prenne": 4324,
      "satis": 4325,
      "salade": 4326,
      "ouvrent": 4327,
      "dansé": 4328,
      "aper": 4329,
      "appa": 4330,
      "parlaient": 4331,
      "celui": 4332,
      "joux": 4333,
      "rigé": 4334,
      "sonnait": 4335,
      "dessert": 4336,
      "gris": 4337,
      "graines": 4338,
      "rentrent": 4339,
      "immédi": 4340,
      "gard": 4341,
      "garda": 4342,
      "siro": 4343,
      "sieurs": 4344,
      "endu": 4345,
      "démange": 4346,
      "déchet": 4347,
      "atures": 4348,
      "ateurs": 4349,
      "agité": 4350,
      "agita": 4351,
      "èrement": 4352,
      "Lee": 4353,
      "comporter": 4354,
      "comportait": 4355,
      "réun": 4356,
      "régu": 4357,
      "résolu": 4358,
      "reusement": 4359,
      "lign": 4360,
      "brune": 4361,
      "act": 4362,
      "accourut": 4363,
      "sente": 4364,
      "sentis": 4365,
      "ressentit": 4366,
      "respon": 4367,
      "resseuse": 4368,
      "geait": 4369,
      "myst": 4370,
      "verse": 4371,
      "vier": 4372,
      "vienne": 4373,
      "lézard": 4374,
      "roses": 4375,
      "quels": 4376,
      "ience": 4377,
      "radeau": 4378,
      "loge": 4379,
      "demandèrent": 4380,
      "sément": 4381,
      "sécher": 4382,
      "fic": 4383,
      "conna": 4384,
      "contact": 4385,
      "piers": 4386,
      "amicaux": 4387,
      "sembler": 4388,
      "velours": 4389,
      "Annie": 4390,
      "micro": 4391,
      "tens": 4392,
      "fris": 4393,
      "bonheur": 4394,
      "retard": 4395,
      "retira": 4396,
      "boutique": 4397,
      "solitaire": 4398,
      "roues": 4399,
      "roulait": 4400,
      "fortes": 4401,
      "poutre": 4402,
      "soulever": 4403,
      "essayons": 4404,
      "marteau": 4405,
      "marier": 4406,
      "mesure": 4407,
      "aiderait": 4408,
      "chantant": 4409,
      "rayon": 4410,
      "attendant": 4411,
      "sautèrent": 4412,
      "sautillant": 4413,
      "mpat": 4414,
      "obtenir": 4415,
      "obscurité": 4416,
      "venaient": 4417,
      "venus": 4418,
      "remercier": 4419,
      "airs": 4420,
      "retourne": 4421,
      "montée": 4422,
      "rêvent": 4423,
      "rêves": 4424,
      "renon": 4425,
      "rence": 4426,
      "blanches": 4427,
      "continue": 4428,
      "aventur": 4429,
      "laissant": 4430,
      "chéri": 4431,
      "tombaient": 4432,
      "volèrent": 4433,
      "volcan": 4434,
      "entendait": 4435,
      "approchés": 4436,
      "promenèrent": 4437,
      "suivent": 4438,
      "chic": 4439,
      "miséra": 4440,
      "penser": 4441,
      "voyager": 4442,
      "arrêtent": 4443,
      "arrêtèrent": 4444,
      "regardés": 4445,
      "souviend": 4446,
      "tolet": 4447,
      "ancre": 4448,
      "paresseuse": 4449,
      "compat": 4450,
      "compté": 4451,
      "pensant": 4452,
      "hoché": 4453,
      "soif": 4454,
      "rubans": 4455,
      "cornet": 4456,
      "réfrigé": 4457,
      "impol": 4458,
      "créé": 4459,
      "création": 4460,
      "direction": 4461,
      "oublient": 4462,
      "oublièrent": 4463,
      "découvert": 4464,
      "moti": 4465,
      "cuisin": 4466,
      "pointant": 4467,
      "remplir": 4468,
      "racontent": 4469,
      "moquer": 4470,
      "pleuré": 4471,
      "apprécier": 4472,
      "seuls": 4473,
      "atteignent": 4474,
      "muff": 4475,
      "sinon": 4476,
      "colorée": 4477,
      "poste": 4478,
      "sentiment": 4479,
      "sentiments": 4480,
      "entraîner": 4481,
      "grenouilles": 4482,
      "noirs": 4483,
      "papiers": 4484,
      "signes": 4485,
      "fenêtres": 4486,
      "souhaité": 4487,
      "olives": 4488,
      "souffle": 4489,
      "apparu": 4490,
      "éloigna": 4491,
      "araignées": 4492,
      "saleté": 4493,
      "prépara": 4494,
      "laissez": 4495,
      "aimerait": 4496,
      "particu": 4497,
      "fonctionnait": 4498,
      "manteaux": 4499,
      "imaginaire": 4500,
      "théâtre": 4501,
      "enseignante": 4502,
      "bagages": 4503,
      "tasses": 4504,
      "dessina": 4505,
      "dessinait": 4506,
      "retrouva": 4507,
      "flottait": 4508,
      "tailles": 4509,
      "biche": 4510,
      "bijoux": 4511,
      "plusieurs": 4512,
      "ramené": 4513,
      "citron": 4514,
      "dodu": 4515,
      "raton": 4516,
      "émerveillés": 4517,
      "éternu": 4518,
      "scintill": 4519,
      "poilue": 4520,
      "ressemblent": 4521,
      "précipita": 4522,
      "Essa": 4523,
      "Teddy": 4524,
      "lancé": 4525,
      "épicé": 4526,
      "rebondis": 4527,
      "frappé": 4528,
      "frapper": 4529,
      "frappa": 4530,
      "peser": 4531,
      "pompier": 4532,
      "pompiers": 4533,
      "présenter": 4534,
      "presque": 4535,
      "illuminèrent": 4536,
      "essuyer": 4537,
      "essuya": 4538,
      "souvenirs": 4539,
      "lâcha": 4540,
      "entrés": 4541,
      "frustré": 4542,
      "pingouins": 4543,
      "sauvés": 4544,
      "cligna": 4545,
      "gorge": 4546,
      "gorgée": 4547,
      "séparés": 4548,
      "donnant": 4549,
      "reviendrait": 4550,
      "Ginger": 4551,
      "aboyé": 4552,
      "inventer": 4553,
      "rassemblé": 4554,
      "relayaient": 4555,
      "uniforme": 4556,
      "prétendre": 4557,
      "cirage": 4558,
      "accueilli": 4559,
      "équipement": 4560,
      "scie": 4561,
      "pédales": 4562,
      "soupiré": 4563,
      "largement": 4564,
      "Juste": 4565,
      "détruit": 4566,
      "facteur": 4567,
      "épaule": 4568,
      "étreinte": 4569,
      "étincel": 4570,
      "conseils": 4571,
      "brise": 4572,
      "fissure": 4573,
      "horloge": 4574,
      "terrain": 4575,
      "langue": 4576,
      "règles": 4577,
      "rétré": 4578,
      "sympat": 4579,
      "espiègle": 4580,
      "lointain": 4581,
      "inquiétez": 4582,
      "pistolet": 4583,
      "tordu": 4584,
      "tartines": 4585,
      "étincelle": 4586,
      "immobile": 4587,
      "exercice": 4588,
      "amicale": 4589,
      "atteignit": 4590,
      "honnête": 4591,
      "énergie": 4592,
      "Cindy": 4593,
      "Dieu": 4594,
      "Heureusement": 4595,
      "Linda": 4596,
      "Lacy": 4597,
      "Mittens": 4598,
      "Rouge": 4599,
      "klax": 4600,
      "renfor": 4601,
      "rinthe": 4602,
      "silhouette": 4603,
      "éponge": 4604,
      "labyrinthe": 4605,
      "espace": 4606,
      "chariot": 4607,
      "intensément": 4608,
      "appareil": 4609,
      "immédiatement": 4610,
      "déchets": 4611,
      "lignes": 4612,
      "mystère": 4613,
      "misérable": 4614,
      "réfrigérateur": 4615,
      "As": 4616,
      "Bé": 4617,
      "Bro": 4618,
      "Brav": 4619,
      "Clar": 4620,
      "Des": 4621,
      "Ex": 4622,
      "Ge": 4623,
      "Là": 4624,
      "Mel": 4625,
      "Mange": 4626,
      "Mmm": 4627,
      "Nem": 4628,
      "Pas": 4629,
      "Ru": 4630,
      "Ret": 4631,
      "Sk": 4632,
      "Simon": 4633,
      "Soyons": 4634,
      "Ta": 4635,
      "Tweet": 4636,
      "Venez": 4637,
      "Will": 4638,
      "abon": 4639,
      "bê": 4640,
      "bor": 4641,
      "blé": 4642,
      "bale": 4643,
      "billes": 4644,
      "baign": 4645,
      "bottes": 4646,
      "cui": 4647,
      "dure": 4648,
      "fuit": 4649,
      "faux": 4650,
      "gol": 4651,
      "gres": 4652,
      "ggé": 4653,
      "hont": 4654,
      "hous": 4655,
      "ias": 4656,
      "ime": 4657,
      "ke": 4658,
      "lun": 4659,
      "mord": 4660,
      "nant": 4661,
      "oles": 4662,
      "py": 4663,
      "page": 4664,
      "plong": 4665,
      "pati": 4666,
      "rois": 4667,
      "rène": 4668,
      "sit": 4669,
      "sus": 4670,
      "sain": 4671,
      "sang": 4672,
      "somme": 4673,
      "scope": 4674,
      "squelette": 4675,
      "tit": 4676,
      "tordre": 4677,
      "ute": 4678,
      "uve": 4679,
      "vin": 4680,
      "vère": 4681,
      "wnie": 4682,
      "Êtes": 4683,
      "çut": 4684,
      "éve": 4685,
      "écria": 4686,
      "évier": 4687,
      "airière": 4688,
      "oureux": 4689,
      "envole": 4690,
      "ets": 4691,
      "repas": 4692,
      "repos": 4693,
      "revenait": 4694,
      "relever": 4695,
      "rejoign": 4696,
      "recevoir": 4697,
      "ano": 4698,
      "enthous": 4699,
      "ilateur": 4700,
      "qués": 4701,
      "ournons": 4702,
      "laquelle": 4703,
      "essui": 4704,
      "escargot": 4705,
      "change": 4706,
      "chaise": 4707,
      "choix": 4708,
      "auraient": 4709,
      "issent": 4710,
      "issement": 4711,
      "avo": 4712,
      "avenir": 4713,
      "avate": 4714,
      "euvre": 4715,
      "amitié": 4716,
      "orge": 4717,
      "assortir": 4718,
      "sages": 4719,
      "luci": 4720,
      "menthe": 4721,
      "parvint": 4722,
      "rideau": 4723,
      "destin": 4724,
      "pourrais": 4725,
      "rentrons": 4726,
      "sions": 4727,
      "sirène": 4728,
      "endue": 4729,
      "déch": 4730,
      "dément": 4731,
      "défilé": 4732,
      "réconc": 4733,
      "liers": 4734,
      "lièrement": 4735,
      "surface": 4736,
      "irons": 4737,
      "!\",": 4738,
      "bra": 4739,
      "brille": 4740,
      "coudre": 4741,
      "choquée": 4742,
      "seras": 4743,
      "restèrent": 4744,
      "cours": 4745,
      "courses": 4746,
      "gelé": 4747,
      "verser": 4748,
      "vif": 4749,
      "demment": 4750,
      "lécha": 4751,
      "cherchent": 4752,
      "cherchèrent": 4753,
      "partaient": 4754,
      "rafraî": 4755,
      "Maisy": 4756,
      "remis": 4757,
      "remise": 4758,
      "remporté": 4759,
      "loé": 4760,
      "diam": 4761,
      "divis": 4762,
      "sévère": 4763,
      "cot": 4764,
      "angé": 4765,
      "confuse": 4766,
      "pic": 4767,
      "piano": 4768,
      "pieuvre": 4769,
      "Anny": 4770,
      "taquin": 4771,
      "disper": 4772,
      "colis": 4773,
      "collin": 4774,
      "fraise": 4775,
      "gnée": 4776,
      "retar": 4777,
      "pose": 4778,
      "beep": 4779,
      "boucle": 4780,
      "portée": 4781,
      "heureusement": 4782,
      "sortent": 4783,
      "sortant": 4784,
      "maqu": 4785,
      "madame": 4786,
      "soucis": 4787,
      "mesurer": 4788,
      "grosses": 4789,
      "Mike": 4790,
      "ventilateur": 4791,
      "répéter": 4792,
      "adore": 4793,
      "cul": 4794,
      "remerciée": 4795,
      "vées": 4796,
      "montent": 4797,
      "Chloé": 4798,
      "vieilles": 4799,
      "brillants": 4800,
      "magie": 4801,
      "blée": 4802,
      "malins": 4803,
      "rampé": 4804,
      "rampait": 4805,
      "laissée": 4806,
      "chéris": 4807,
      "prises": 4808,
      "effet": 4809,
      "tif": 4810,
      "tombait": 4811,
      "tombent": 4812,
      "balade": 4813,
      "adorable": 4814,
      "suivante": 4815,
      "ennuis": 4816,
      "tournait": 4817,
      "crain": 4818,
      "cravate": 4819,
      "utilisait": 4820,
      "arrêtée": 4821,
      "instr": 4822,
      "répondre": 4823,
      "trouverait": 4824,
      "raser": 4825,
      "rassembler": 4826,
      "souven": 4827,
      "souviens": 4828,
      "prudemment": 4829,
      "glacé": 4830,
      "glaces": 4831,
      "travaillait": 4832,
      "suggé": 4833,
      "poussent": 4834,
      "poussèrent": 4835,
      "féli": 4836,
      "pensais": 4837,
      "pots": 4838,
      "troisième": 4839,
      "cheminée": 4840,
      "hauteur": 4841,
      "inquiéter": 4842,
      "illés": 4843,
      "corbeau": 4844,
      "correspon": 4845,
      "corvées": 4846,
      "moto": 4847,
      "saucis": 4848,
      "froids": 4849,
      "Alfie": 4850,
      "points": 4851,
      "cône": 4852,
      "moitié": 4853,
      "chapeaux": 4854,
      "côtés": 4855,
      "atteint": 4856,
      "chevalier": 4857,
      "réfléchir": 4858,
      "préférées": 4859,
      "mangeait": 4860,
      "onnement": 4861,
      "pancarte": 4862,
      "réveille": 4863,
      "réveiller": 4864,
      "profondément": 4865,
      "cassées": 4866,
      "détendue": 4867,
      "longuement": 4868,
      "iglo": 4869,
      "igna": 4870,
      "enseigna": 4871,
      "olive": 4872,
      "souffler": 4873,
      "apparue": 4874,
      "imaginer": 4875,
      "affront": 4876,
      "ajouté": 4877,
      "banane": 4878,
      "observa": 4879,
      "observé": 4880,
      "hum": 4881,
      "tremper": 4882,
      "clairière": 4883,
      "honk": 4884,
      "attacha": 4885,
      "problèmes": 4886,
      "parfaitement": 4887,
      "nageait": 4888,
      "timbre": 4889,
      "ennuyait": 4890,
      "ennuyeuses": 4891,
      "propriétaires": 4892,
      "bizar": 4893,
      "moyens": 4894,
      "plume": 4895,
      "assurait": 4896,
      "assurée": 4897,
      "récupéré": 4898,
      "ratisser": 4899,
      "trafic": 4900,
      "mouillés": 4901,
      "profitant": 4902,
      "ayant": 4903,
      "fuir": 4904,
      "rangée": 4905,
      "saluer": 4906,
      "bruyante": 4907,
      "rappela": 4908,
      "rappelé": 4909,
      "conduisait": 4910,
      "violettes": 4911,
      "remplissait": 4912,
      "paysage": 4913,
      "Escargot": 4914,
      "prenons": 4915,
      "chuchotement": 4916,
      "dirait": 4917,
      "pesait": 4918,
      "pommes": 4919,
      "remuait": 4920,
      "remuer": 4921,
      "marié": 4922,
      "contrarié": 4923,
      "allumé": 4924,
      "blottit": 4925,
      "endormie": 4926,
      "blagues": 4927,
      "masques": 4928,
      "recula": 4929,
      "heurté": 4930,
      "verrouillée": 4931,
      "vidéos": 4932,
      "sauvages": 4933,
      "gonfla": 4934,
      "erreurs": 4935,
      "vérifi": 4936,
      "aboya": 4937,
      "flèches": 4938,
      "mienne": 4939,
      "question": 4940,
      "ceintures": 4941,
      "déchirer": 4942,
      "machines": 4943,
      "acquiescèrent": 4944,
      "relayer": 4945,
      "recraché": 4946,
      "gazou": 4947,
      "étagères": 4948,
      "danse": 4949,
      "fleuve": 4950,
      "emballer": 4951,
      "muscles": 4952,
      "indice": 4953,
      "embarrassé": 4954,
      "poussière": 4955,
      "emmèner": 4956,
      "emmènent": 4957,
      "équilibre": 4958,
      "original": 4959,
      "originale": 4960,
      "bailla": 4961,
      "juteux": 4962,
      "aucun": 4963,
      "Tony": 4964,
      "pétales": 4965,
      "zippait": 4966,
      "gracieux": 4967,
      "silencieux": 4968,
      "réchauffer": 4969,
      "numéro": 4970,
      "entraîna": 4971,
      "luxe": 4972,
      "complètement": 4973,
      "viendra": 4974,
      "cruche": 4975,
      "crâne": 4976,
      "Malheureusement": 4977,
      "alerte": 4978,
      "gistre": 4979,
      "lancent": 4980,
      "enregistre": 4981,
      "encouragé": 4982,
      "aperçut": 4983,
      "démangeais": 4984,
      "réunion": 4985,
      "connaître": 4986,
      "microscope": 4987,
      "muffin": 4988,
      "particulièrement": 4989,
      "Essayons": 4990,
      "klaxon": 4991,
      "Bébé": 4992,
      "Brownie": 4993,
      "Bravo": 4994,
      "Clarissa": 4995,
      "George": 4996,
      "Nemo": 4997,
      "Skip": 4998,
      "baleine": 4999
    },
    "merges": [
      [
        "l",
        "e"
      ],
      [
        "a",
        "i"
      ],
      [
        "o",
        "u"
      ],
      [
        "e",
        "n"
      ],
      [
        "e",
        "t"
      ],
      [
        "r",
        "e"
      ],
      [
        "d",
        "e"
      ],
      [
        "ai",
        "t"
      ],
      [
        "o",
        "n"
      ],
      [
        "a",
        "n"
      ],
      [
        "en",
        "t"
      ],
      [
        "i",
        "l"
      ],
      [
        "i",
        "t"
      ],
      [
        "e",
        "r"
      ],
      [
        "q",
        "u"
      ],
      [
        "s",
        "e"
      ],
      [
        "u",
        "n"
      ],
      [
        "l",
        "le"
      ],
      [
        "I",
        "l"
      ],
      [
        "ou",
        "r"
      ],
      [
        "l",
        "a"
      ],
      [
        "a",
        "r"
      ],
      [
        "e",
        "s"
      ],
      [
        "c",
        "h"
      ],
      [
        "é",
        "t"
      ],
      [
        "a",
        "u"
      ],
      [
        "i",
        "s"
      ],
      [
        "a",
        "v"
      ],
      [
        "e",
        "u"
      ],
      [
        "a",
        "m"
      ],
      [
        "t",
        "e"
      ],
      [
        "ét",
        "ait"
      ],
      [
        "i",
        "n"
      ],
      [
        "o",
        "m"
      ],
      [
        "o",
        "r"
      ],
      [
        "a",
        "s"
      ],
      [
        "t",
        "r"
      ],
      [
        "un",
        "e"
      ],
      [
        "E",
        "lle"
      ],
      [
        "qu",
        "e"
      ],
      [
        "o",
        "i"
      ],
      [
        "u",
        "r"
      ],
      [
        "d",
        "it"
      ],
      [
        "ai",
        "s"
      ],
      [
        "le",
        "s"
      ],
      [
        "on",
        "t"
      ],
      [
        "p",
        "r"
      ],
      [
        "e",
        "lle"
      ],
      [
        "Il",
        "s"
      ],
      [
        "an",
        "t"
      ],
      [
        "s",
        "a"
      ],
      [
        "l",
        "u"
      ],
      [
        "ou",
        "v"
      ],
      [
        "an",
        "s"
      ],
      [
        "es",
        "t"
      ],
      [
        "n",
        "e"
      ],
      [
        "d",
        "ans"
      ],
      [
        "p",
        "as"
      ],
      [
        "a",
        "l"
      ],
      [
        "j",
        "our"
      ],
      [
        "m",
        "ent"
      ],
      [
        "a",
        "p"
      ],
      [
        "ou",
        "s"
      ],
      [
        "av",
        "ait"
      ],
      [
        "p",
        "ar"
      ],
      [
        "c",
        "e"
      ],
      [
        "c",
        "i"
      ],
      [
        "é",
        "e"
      ],
      [
        "ai",
        "ent"
      ],
      [
        "j",
        "ou"
      ],
      [
        "av",
        "e"
      ],
      [
        "r",
        "i"
      ],
      [
        "an",
        "d"
      ],
      [
        "s",
        "on"
      ],
      [
        "de",
        "s"
      ],
      [
        "ave",
        "c"
      ],
      [
        "L",
        "il"
      ],
      [
        "m",
        "e"
      ],
      [
        "p",
        "our"
      ],
      [
        "il",
        "le"
      ],
      [
        "am",
        "an"
      ],
      [
        "o",
        "is"
      ],
      [
        "Lil",
        "y"
      ],
      [
        "g",
        "r"
      ],
      [
        "r",
        "ent"
      ],
      [
        "t",
        "re"
      ],
      [
        "i",
        "m"
      ],
      [
        "è",
        "s"
      ],
      [
        "g",
        "ar"
      ],
      [
        "eu",
        "x"
      ],
      [
        "s",
        "i"
      ],
      [
        "se",
        "s"
      ],
      [
        "en",
        "d"
      ],
      [
        "d",
        "é"
      ],
      [
        "a",
        "t"
      ],
      [
        "o",
        "l"
      ],
      [
        "a",
        "g"
      ],
      [
        "et",
        "it"
      ],
      [
        "le",
        "ur"
      ],
      [
        "u",
        "s"
      ],
      [
        "p",
        "etit"
      ],
      [
        "è",
        "re"
      ],
      [
        "t",
        "ou"
      ],
      [
        "oi",
        "r"
      ],
      [
        "e",
        "au"
      ],
      [
        "m",
        "aman"
      ],
      [
        "on",
        "s"
      ],
      [
        "il",
        "s"
      ],
      [
        "u",
        "re"
      ],
      [
        "m",
        "ais"
      ],
      [
        "L",
        "e"
      ],
      [
        "lu",
        "i"
      ],
      [
        "ch",
        "e"
      ],
      [
        "c",
        "om"
      ],
      [
        "r",
        "é"
      ],
      [
        ".",
        "\""
      ],
      [
        "re",
        "u"
      ],
      [
        "d",
        "u"
      ],
      [
        "tr",
        "ès"
      ],
      [
        "l",
        "i"
      ],
      [
        "l",
        "ait"
      ],
      [
        "s",
        "ur"
      ],
      [
        "f",
        "ois"
      ],
      [
        "or",
        "t"
      ],
      [
        "h",
        "eu"
      ],
      [
        "or",
        "s"
      ],
      [
        "i",
        "r"
      ],
      [
        "ai",
        "n"
      ],
      [
        "B",
        "en"
      ],
      [
        "!",
        "\""
      ],
      [
        "b",
        "r"
      ],
      [
        "qu",
        "i"
      ],
      [
        "s",
        "our"
      ],
      [
        "b",
        "le"
      ],
      [
        "v",
        "ou"
      ],
      [
        "jou",
        "er"
      ],
      [
        "heu",
        "reu"
      ],
      [
        "c",
        "ou"
      ],
      [
        "lu",
        "s"
      ],
      [
        "a",
        "c"
      ],
      [
        "p",
        "lus"
      ],
      [
        "ch",
        "o"
      ],
      [
        "U",
        "n"
      ],
      [
        "s",
        "er"
      ],
      [
        "v",
        "o"
      ],
      [
        "s",
        "ent"
      ],
      [
        "re",
        "s"
      ],
      [
        "c",
        "our"
      ],
      [
        "L",
        "a"
      ],
      [
        "e",
        "x"
      ],
      [
        "ai",
        "m"
      ],
      [
        "f",
        "ille"
      ],
      [
        "u",
        "is"
      ],
      [
        "s",
        "ont"
      ],
      [
        "g",
        "e"
      ],
      [
        "te",
        "lle"
      ],
      [
        "telle",
        "ment"
      ],
      [
        "T",
        "im"
      ],
      [
        "eu",
        "r"
      ],
      [
        "ai",
        "re"
      ],
      [
        "m",
        "y"
      ],
      [
        "v",
        "er"
      ],
      [
        "petit",
        "e"
      ],
      [
        "v",
        "i"
      ],
      [
        "è",
        "rent"
      ],
      [
        "T",
        "om"
      ],
      [
        "de",
        "m"
      ],
      [
        "re",
        "gar"
      ],
      [
        "u",
        "t"
      ],
      [
        "l",
        "é"
      ],
      [
        "vou",
        "lait"
      ],
      [
        "r",
        "o"
      ],
      [
        "que",
        "l"
      ],
      [
        "au",
        "t"
      ],
      [
        "ê",
        "tre"
      ],
      [
        "v",
        "it"
      ],
      [
        "p",
        "e"
      ],
      [
        "J",
        "e"
      ],
      [
        "ch",
        "er"
      ],
      [
        "par",
        "t"
      ],
      [
        "?",
        "\""
      ],
      [
        "i",
        "en"
      ],
      [
        "tr",
        "ouv"
      ],
      [
        "u",
        "it"
      ],
      [
        "r",
        "a"
      ],
      [
        "se",
        "m"
      ],
      [
        "de",
        "r"
      ],
      [
        "t",
        "u"
      ],
      [
        "tou",
        "t"
      ],
      [
        "p",
        "ouv"
      ],
      [
        "am",
        "is"
      ],
      [
        "m",
        "en"
      ],
      [
        "gr",
        "and"
      ],
      [
        "M",
        "ais"
      ],
      [
        "t",
        "é"
      ],
      [
        "re",
        "m"
      ],
      [
        "t",
        "er"
      ],
      [
        "u",
        "e"
      ],
      [
        "heureu",
        "x"
      ],
      [
        "f",
        "aire"
      ],
      [
        "m",
        "on"
      ],
      [
        "ç",
        "on"
      ],
      [
        "l",
        "o"
      ],
      [
        "il",
        "l"
      ],
      [
        "re",
        "r"
      ],
      [
        "i",
        "on"
      ],
      [
        "f",
        "f"
      ],
      [
        "pr",
        "o"
      ],
      [
        "n",
        "ouv"
      ],
      [
        "o",
        "s"
      ],
      [
        "ét",
        "aient"
      ],
      [
        "p",
        "é"
      ],
      [
        "d",
        "i"
      ],
      [
        "dem",
        "and"
      ],
      [
        "n",
        "a"
      ],
      [
        ",",
        "\""
      ],
      [
        "cou",
        "p"
      ],
      [
        "leur",
        "s"
      ],
      [
        "aim",
        "ait"
      ],
      [
        "s",
        "é"
      ],
      [
        "cho",
        "se"
      ],
      [
        "n",
        "om"
      ],
      [
        "b",
        "re"
      ],
      [
        "au",
        "s"
      ],
      [
        "b",
        "eau"
      ],
      [
        "jour",
        "s"
      ],
      [
        "av",
        "oir"
      ],
      [
        "gar",
        "çon"
      ],
      [
        "c",
        "o"
      ],
      [
        "v",
        "u"
      ],
      [
        "end",
        "re"
      ],
      [
        "au",
        "x"
      ],
      [
        "ex",
        "c"
      ],
      [
        "f",
        "i"
      ],
      [
        "de",
        "v"
      ],
      [
        "u",
        "i"
      ],
      [
        "an",
        "g"
      ],
      [
        "j",
        "e"
      ],
      [
        "Tim",
        "my"
      ],
      [
        "é",
        "s"
      ],
      [
        "com",
        "men"
      ],
      [
        "c",
        "on"
      ],
      [
        "am",
        "us"
      ],
      [
        "f",
        "ait"
      ],
      [
        "m",
        "é"
      ],
      [
        "v",
        "oir"
      ],
      [
        "eu",
        "t"
      ],
      [
        "vo",
        "it"
      ],
      [
        "c",
        "ont"
      ],
      [
        "j",
        "us"
      ],
      [
        "o",
        "t"
      ],
      [
        "d",
        "a"
      ],
      [
        "p",
        "i"
      ],
      [
        "am",
        "i"
      ],
      [
        "t",
        "ous"
      ],
      [
        "al",
        "l"
      ],
      [
        "sem",
        "ble"
      ],
      [
        "quel",
        "que"
      ],
      [
        "beau",
        "coup"
      ],
      [
        "jou",
        "et"
      ],
      [
        "aus",
        "si"
      ],
      [
        "T",
        "u"
      ],
      [
        "M",
        "aman"
      ],
      [
        "v",
        "e"
      ],
      [
        "A",
        "n"
      ],
      [
        "ver",
        "s"
      ],
      [
        "t",
        "a"
      ],
      [
        "sour",
        "i"
      ],
      [
        "ç",
        "a"
      ],
      [
        "ar",
        "a"
      ],
      [
        "ar",
        "d"
      ],
      [
        "au",
        "tre"
      ],
      [
        "v",
        "ous"
      ],
      [
        "tou",
        "jours"
      ],
      [
        "m",
        "i"
      ],
      [
        "exc",
        "it"
      ],
      [
        "t",
        "es"
      ],
      [
        "sour",
        "it"
      ],
      [
        "n",
        "ous"
      ],
      [
        "d",
        "is"
      ],
      [
        "S",
        "ara"
      ],
      [
        "er",
        "ci"
      ],
      [
        "ag",
        "e"
      ],
      [
        "c",
        "é"
      ],
      [
        "an",
        "te"
      ],
      [
        "l",
        "ors"
      ],
      [
        "ch",
        "a"
      ],
      [
        "ê",
        "te"
      ],
      [
        "en",
        "f"
      ],
      [
        "s",
        "o"
      ],
      [
        "al",
        "ors"
      ],
      [
        "nouv",
        "eau"
      ],
      [
        "c",
        "ol"
      ],
      [
        "p",
        "er"
      ],
      [
        "b",
        "o"
      ],
      [
        "t",
        "en"
      ],
      [
        "u",
        "x"
      ],
      [
        "om",
        "me"
      ],
      [
        "demand",
        "a"
      ],
      [
        "voit",
        "ure"
      ],
      [
        "d",
        "on"
      ],
      [
        "f",
        "r"
      ],
      [
        "g",
        "n"
      ],
      [
        "pr",
        "é"
      ],
      [
        "g",
        "ent"
      ],
      [
        "b",
        "on"
      ],
      [
        "An",
        "na"
      ],
      [
        "en",
        "semble"
      ],
      [
        "an",
        "de"
      ],
      [
        "par",
        "c"
      ],
      [
        "r",
        "et"
      ],
      [
        "tr",
        "is"
      ],
      [
        "pr",
        "ès"
      ],
      [
        "oi",
        "se"
      ],
      [
        "p",
        "la"
      ],
      [
        "p",
        "o"
      ],
      [
        "dé",
        "ci"
      ],
      [
        "b",
        "e"
      ],
      [
        "b",
        "ou"
      ],
      [
        "eu",
        "se"
      ],
      [
        "p",
        "ort"
      ],
      [
        "in",
        "t"
      ],
      [
        "s",
        "ol"
      ],
      [
        "br",
        "as"
      ],
      [
        "m",
        "ain"
      ],
      [
        "S",
        "a"
      ],
      [
        "heureu",
        "se"
      ],
      [
        "j",
        "am"
      ],
      [
        "s",
        "ort"
      ],
      [
        "r",
        "ou"
      ],
      [
        "pouv",
        "ait"
      ],
      [
        "m",
        "a"
      ],
      [
        "f",
        "ort"
      ],
      [
        "en",
        "s"
      ],
      [
        "mon",
        "de"
      ],
      [
        "es",
        "sa"
      ],
      [
        "p",
        "ou"
      ],
      [
        "ac",
        "k"
      ],
      [
        "e",
        "m"
      ],
      [
        "J",
        "ack"
      ],
      [
        "c",
        "a"
      ],
      [
        "h",
        "omme"
      ],
      [
        "s",
        "ou"
      ],
      [
        "in",
        "e"
      ],
      [
        "or",
        "d"
      ],
      [
        "ap",
        "a"
      ],
      [
        "mais",
        "on"
      ],
      [
        "cho",
        "ses"
      ],
      [
        "l",
        "à"
      ],
      [
        "s",
        "pé"
      ],
      [
        "spé",
        "ci"
      ],
      [
        "Q",
        "u"
      ],
      [
        "ch",
        "ien"
      ],
      [
        "essa",
        "y"
      ],
      [
        "et",
        "te"
      ],
      [
        "pr",
        "is"
      ],
      [
        "tris",
        "te"
      ],
      [
        "de",
        "ux"
      ],
      [
        "n",
        "er"
      ],
      [
        "gr",
        "ande"
      ],
      [
        "jam",
        "ais"
      ],
      [
        "m",
        "ar"
      ],
      [
        "t",
        "oi"
      ],
      [
        "o",
        "p"
      ],
      [
        "le",
        "r"
      ],
      [
        "m",
        "es"
      ],
      [
        "ai",
        "der"
      ],
      [
        "e",
        "l"
      ],
      [
        "i",
        "e"
      ],
      [
        "gr",
        "os"
      ],
      [
        "jouet",
        "s"
      ],
      [
        "qu",
        "and"
      ],
      [
        "m",
        "ère"
      ],
      [
        "jus",
        "qu"
      ],
      [
        "S",
        "am"
      ],
      [
        "oise",
        "au"
      ],
      [
        "c",
        "ar"
      ],
      [
        "A",
        "lors"
      ],
      [
        "p",
        "le"
      ],
      [
        "a",
        "le"
      ],
      [
        "i",
        "ent"
      ],
      [
        "te",
        "au"
      ],
      [
        "M",
        "i"
      ],
      [
        "a",
        "lle"
      ],
      [
        "c",
        "er"
      ],
      [
        "tr",
        "op"
      ],
      [
        "r",
        "it"
      ],
      [
        "an",
        "ge"
      ],
      [
        "pr",
        "endre"
      ],
      [
        "v",
        "oi"
      ],
      [
        "J",
        "o"
      ],
      [
        "c",
        "ri"
      ],
      [
        "ai",
        "me"
      ],
      [
        "c",
        "ur"
      ],
      [
        "g",
        "u"
      ],
      [
        "ch",
        "ant"
      ],
      [
        "m",
        "in"
      ],
      [
        "ar",
        "ri"
      ],
      [
        "elle",
        "s"
      ],
      [
        "ra",
        "y"
      ],
      [
        "ang",
        "er"
      ],
      [
        "Mi",
        "a"
      ],
      [
        "at",
        "t"
      ],
      [
        "aut",
        "our"
      ],
      [
        "r",
        "ap"
      ],
      [
        "N",
        "ous"
      ],
      [
        "che",
        "z"
      ],
      [
        "le",
        "n"
      ],
      [
        "té",
        "ri"
      ],
      [
        "d",
        "ain"
      ],
      [
        "f",
        "ais"
      ],
      [
        "v",
        "a"
      ],
      [
        "i",
        "de"
      ],
      [
        "p",
        "eux"
      ],
      [
        "y",
        "eux"
      ],
      [
        "p",
        "uis"
      ],
      [
        "s",
        "avait"
      ],
      [
        "or",
        "te"
      ],
      [
        "s",
        "aut"
      ],
      [
        "ex",
        "p"
      ],
      [
        "j",
        "ard"
      ],
      [
        "m",
        "p"
      ],
      [
        "jard",
        "in"
      ],
      [
        "E",
        "n"
      ],
      [
        "ant",
        "s"
      ],
      [
        "our",
        "s"
      ],
      [
        "tr",
        "av"
      ],
      [
        "sent",
        "ait"
      ],
      [
        "ten",
        "ant"
      ],
      [
        "b",
        "all"
      ],
      [
        "l",
        "on"
      ],
      [
        "n",
        "é"
      ],
      [
        "n",
        "ée"
      ],
      [
        "v",
        "ent"
      ],
      [
        "av",
        "aient"
      ],
      [
        "ré",
        "p"
      ],
      [
        "bo",
        "î"
      ],
      [
        "v",
        "re"
      ],
      [
        "E",
        "t"
      ],
      [
        "a",
        "d"
      ],
      [
        "o",
        "b"
      ],
      [
        "so",
        "le"
      ],
      [
        "téri",
        "eur"
      ],
      [
        "c",
        "u"
      ],
      [
        "d",
        "ent"
      ],
      [
        "l",
        "y"
      ],
      [
        "s",
        "uis"
      ],
      [
        "v",
        "en"
      ],
      [
        "com",
        "me"
      ],
      [
        "rem",
        "erci"
      ],
      [
        "S",
        "ou"
      ],
      [
        "qu",
        "oi"
      ],
      [
        "ar",
        "bre"
      ],
      [
        "sole",
        "il"
      ],
      [
        "m",
        "ée"
      ],
      [
        "p",
        "ère"
      ],
      [
        "ai",
        "r"
      ],
      [
        "ret",
        "our"
      ],
      [
        "Sou",
        "dain"
      ],
      [
        "p",
        "eur"
      ],
      [
        "L",
        "es"
      ],
      [
        "v",
        "é"
      ],
      [
        "boî",
        "te"
      ],
      [
        "se",
        "c"
      ],
      [
        "des",
        "s"
      ],
      [
        "ô",
        "t"
      ],
      [
        "Qu",
        "and"
      ],
      [
        "m",
        "ont"
      ],
      [
        "C",
        "h"
      ],
      [
        "ch",
        "am"
      ],
      [
        "part",
        "ir"
      ],
      [
        "h",
        "ors"
      ],
      [
        "in",
        "térieur"
      ],
      [
        "m",
        "om"
      ],
      [
        "p",
        "eu"
      ],
      [
        "ê",
        "me"
      ],
      [
        "at",
        "tr"
      ],
      [
        "m",
        "er"
      ],
      [
        "r",
        "ê"
      ],
      [
        "u",
        "c"
      ],
      [
        "v",
        "eux"
      ],
      [
        "ci",
        "el"
      ],
      [
        "vi",
        "e"
      ],
      [
        "te",
        "mp"
      ],
      [
        "uit",
        "e"
      ],
      [
        "M",
        "a"
      ],
      [
        "ouv",
        "er"
      ],
      [
        "regar",
        "da"
      ],
      [
        "f",
        "in"
      ],
      [
        "pr",
        "it"
      ],
      [
        "br",
        "ill"
      ],
      [
        "C",
        "e"
      ],
      [
        "i",
        "er"
      ],
      [
        "nom",
        "mée"
      ],
      [
        "v",
        "is"
      ],
      [
        "mom",
        "ent"
      ],
      [
        "m",
        "oi"
      ],
      [
        "m",
        "ag"
      ],
      [
        "de",
        "hors"
      ],
      [
        "jour",
        "née"
      ],
      [
        "commen",
        "cé"
      ],
      [
        "pr",
        "om"
      ],
      [
        "r",
        "en"
      ],
      [
        "déci",
        "da"
      ],
      [
        "ai",
        "ment"
      ],
      [
        "trouv",
        "é"
      ],
      [
        "ball",
        "on"
      ],
      [
        "a",
        "ble"
      ],
      [
        "f",
        "er"
      ],
      [
        "p",
        "in"
      ],
      [
        "ag",
        "er"
      ],
      [
        "autre",
        "s"
      ],
      [
        "b",
        "l"
      ],
      [
        "e",
        "z"
      ],
      [
        "m",
        "al"
      ],
      [
        "m",
        "ême"
      ],
      [
        "il",
        "les"
      ],
      [
        "ap",
        "pe"
      ],
      [
        "rap",
        "ide"
      ],
      [
        "an",
        "im"
      ],
      [
        "a",
        "b"
      ],
      [
        "r",
        "ait"
      ],
      [
        "br",
        "uit"
      ],
      [
        "cont",
        "in"
      ],
      [
        "alle",
        "r"
      ],
      [
        "f",
        "it"
      ],
      [
        "av",
        "ent"
      ],
      [
        "om",
        "b"
      ],
      [
        "me",
        "ille"
      ],
      [
        "ac",
        "c"
      ],
      [
        "commen",
        "ça"
      ],
      [
        "f",
        "or"
      ],
      [
        "p",
        "orte"
      ],
      [
        "ch",
        "at"
      ],
      [
        "ro",
        "it"
      ],
      [
        "dé",
        "sol"
      ],
      [
        "temp",
        "s"
      ],
      [
        "Ma",
        "x"
      ],
      [
        "o",
        "y"
      ],
      [
        "o",
        "in"
      ],
      [
        "r",
        "am"
      ],
      [
        "nom",
        "mé"
      ],
      [
        "l",
        "ais"
      ],
      [
        "contin",
        "u"
      ],
      [
        "ch",
        "é"
      ],
      [
        "spéci",
        "al"
      ],
      [
        "b",
        "ien"
      ],
      [
        "t",
        "on"
      ],
      [
        "pr",
        "i"
      ],
      [
        "cont",
        "ent"
      ],
      [
        "ient",
        "ôt"
      ],
      [
        "t",
        "ête"
      ],
      [
        "i",
        "ci"
      ],
      [
        "ai",
        "l"
      ],
      [
        "e",
        "ff"
      ],
      [
        "p",
        "ée"
      ],
      [
        "s",
        "om"
      ],
      [
        "it",
        "é"
      ],
      [
        "d",
        "ou"
      ],
      [
        "è",
        "te"
      ],
      [
        "lon",
        "g"
      ],
      [
        "V",
        "ous"
      ],
      [
        "quel",
        "qu"
      ],
      [
        "l",
        "in"
      ],
      [
        "p",
        "eut"
      ],
      [
        "ol",
        "ly"
      ],
      [
        "m",
        "it"
      ],
      [
        "O",
        "ui"
      ],
      [
        "t",
        "i"
      ],
      [
        "excit",
        "ée"
      ],
      [
        "attr",
        "ap"
      ],
      [
        "P",
        "uis"
      ],
      [
        "p",
        "apa"
      ],
      [
        "le",
        "t"
      ],
      [
        "exp",
        "lo"
      ],
      [
        "se",
        "u"
      ],
      [
        "amus",
        "ant"
      ],
      [
        "cham",
        "bre"
      ],
      [
        "avent",
        "ure"
      ],
      [
        "t",
        "omb"
      ],
      [
        "dé",
        "li"
      ],
      [
        "a",
        "que"
      ],
      [
        "c",
        "as"
      ],
      [
        "Ch",
        "aque"
      ],
      [
        "eff",
        "ray"
      ],
      [
        "m",
        "anger"
      ],
      [
        "pou",
        "pée"
      ],
      [
        "explo",
        "rer"
      ],
      [
        "b",
        "a"
      ],
      [
        "er",
        "s"
      ],
      [
        "o",
        "ù"
      ],
      [
        "end",
        "roit"
      ],
      [
        "excit",
        "é"
      ],
      [
        "enf",
        "ants"
      ],
      [
        "é",
        "cou"
      ],
      [
        "ad",
        "or"
      ],
      [
        "c",
        "am"
      ],
      [
        "v",
        "ol"
      ],
      [
        "ê",
        "t"
      ],
      [
        "ent",
        "end"
      ],
      [
        "in",
        "c"
      ],
      [
        "pré",
        "ci"
      ],
      [
        "d",
        "re"
      ],
      [
        "h",
        "n"
      ],
      [
        "ap",
        "pro"
      ],
      [
        "sent",
        "it"
      ],
      [
        "di",
        "ff"
      ],
      [
        "Jo",
        "hn"
      ],
      [
        "n",
        "i"
      ],
      [
        "prom",
        "en"
      ],
      [
        "L",
        "uc"
      ],
      [
        "M",
        "olly"
      ],
      [
        "s",
        "ui"
      ],
      [
        "en",
        "n"
      ],
      [
        "ch",
        "i"
      ],
      [
        "Luc",
        "y"
      ],
      [
        "p",
        "l"
      ],
      [
        "av",
        "ant"
      ],
      [
        "regar",
        "d"
      ],
      [
        "rou",
        "ge"
      ],
      [
        "m",
        "is"
      ],
      [
        "ut",
        "il"
      ],
      [
        "m",
        "et"
      ],
      [
        "ét",
        "é"
      ],
      [
        "sa",
        "c"
      ],
      [
        "cour",
        "ut"
      ],
      [
        "N",
        "on"
      ],
      [
        "t",
        "our"
      ],
      [
        "la",
        "pin"
      ],
      [
        "Elle",
        "s"
      ],
      [
        "part",
        "ager"
      ],
      [
        "co",
        "re"
      ],
      [
        "p",
        "en"
      ],
      [
        "r",
        "end"
      ],
      [
        "en",
        "core"
      ],
      [
        "Lil",
        "a"
      ],
      [
        "b",
        "es"
      ],
      [
        "c",
        "r"
      ],
      [
        "c",
        "t"
      ],
      [
        "d",
        "ée"
      ],
      [
        "en",
        "dit"
      ],
      [
        "ce",
        "la"
      ],
      [
        "F",
        "in"
      ],
      [
        "c",
        "al"
      ],
      [
        "l",
        "aient"
      ],
      [
        "end",
        "ant"
      ],
      [
        "at",
        "i"
      ],
      [
        "col",
        "ère"
      ],
      [
        "mer",
        "ve"
      ],
      [
        "util",
        "is"
      ],
      [
        "in",
        "sec"
      ],
      [
        "vo",
        "y"
      ],
      [
        "anim",
        "aux"
      ],
      [
        "acc",
        "ord"
      ],
      [
        "déli",
        "ci"
      ],
      [
        "b",
        "ientôt"
      ],
      [
        "trouv",
        "a"
      ],
      [
        "ter",
        "re"
      ],
      [
        "pi",
        "è"
      ],
      [
        "mi",
        "eux"
      ],
      [
        "j",
        "ol"
      ],
      [
        "g",
        "ne"
      ],
      [
        "p",
        "li"
      ],
      [
        "ar",
        "rê"
      ],
      [
        "ch",
        "au"
      ],
      [
        "meille",
        "ur"
      ],
      [
        "s",
        "ait"
      ],
      [
        "in",
        "s"
      ],
      [
        "rép",
        "on"
      ],
      [
        "ouver",
        "t"
      ],
      [
        "b",
        "lo"
      ],
      [
        "trouv",
        "er"
      ],
      [
        "M",
        "erci"
      ],
      [
        "f",
        "eu"
      ],
      [
        "ai",
        "de"
      ],
      [
        "ou",
        "t"
      ],
      [
        "ois",
        "son"
      ],
      [
        "fais",
        "ait"
      ],
      [
        "c",
        "an"
      ],
      [
        "f",
        "ut"
      ],
      [
        "h",
        "is"
      ],
      [
        "é",
        "c"
      ],
      [
        "cour",
        "ag"
      ],
      [
        "his",
        "toi"
      ],
      [
        "P",
        "eut"
      ],
      [
        "f",
        "am"
      ],
      [
        "ar",
        "qu"
      ],
      [
        "per",
        "son"
      ],
      [
        "gent",
        "il"
      ],
      [
        "cam",
        "ion"
      ],
      [
        "s",
        "ant"
      ],
      [
        "tr",
        "ou"
      ],
      [
        "ure",
        "r"
      ],
      [
        "aim",
        "aient"
      ],
      [
        "regar",
        "dé"
      ],
      [
        "rem",
        "arqu"
      ],
      [
        "g",
        "o"
      ],
      [
        "i",
        "dée"
      ],
      [
        "r",
        "as"
      ],
      [
        "s",
        "û"
      ],
      [
        "s",
        "ouv"
      ],
      [
        "al",
        "lé"
      ],
      [
        "regar",
        "der"
      ],
      [
        "tout",
        "es"
      ],
      [
        "con",
        "n"
      ],
      [
        "ba",
        "teau"
      ],
      [
        "fam",
        "ille"
      ],
      [
        "A",
        "près"
      ],
      [
        "v",
        "ais"
      ],
      [
        "pr",
        "u"
      ],
      [
        "cur",
        "i"
      ],
      [
        "att",
        "ent"
      ],
      [
        "rapide",
        "ment"
      ],
      [
        "B",
        "ob"
      ],
      [
        "p",
        "ap"
      ],
      [
        "t",
        "o"
      ],
      [
        "souri",
        "re"
      ],
      [
        "bes",
        "oin"
      ],
      [
        "T",
        "out"
      ],
      [
        "v",
        "ait"
      ],
      [
        "ai",
        "ne"
      ],
      [
        "an",
        "c"
      ],
      [
        "mon",
        "tr"
      ],
      [
        "demand",
        "é"
      ],
      [
        "len",
        "t"
      ],
      [
        "g",
        "é"
      ],
      [
        "an",
        "e"
      ],
      [
        "jus",
        "te"
      ],
      [
        "ador",
        "ait"
      ],
      [
        "s",
        "uite"
      ],
      [
        "ap",
        "pris"
      ],
      [
        "f",
        "on"
      ],
      [
        "g",
        "la"
      ],
      [
        "re",
        "voir"
      ],
      [
        "as",
        "se"
      ],
      [
        "main",
        "tenant"
      ],
      [
        "trav",
        "ail"
      ],
      [
        "remerci",
        "a"
      ],
      [
        "p",
        "oisson"
      ],
      [
        "s",
        "u"
      ],
      [
        "ent",
        "endit"
      ],
      [
        "gar",
        "de"
      ],
      [
        "ale",
        "ment"
      ],
      [
        "voi",
        "x"
      ],
      [
        "f",
        "leurs"
      ],
      [
        "p",
        "h"
      ],
      [
        "vou",
        "laient"
      ],
      [
        "em",
        "men"
      ],
      [
        "pri",
        "se"
      ],
      [
        "pru",
        "dent"
      ],
      [
        "R",
        "e"
      ],
      [
        "p",
        "ous"
      ],
      [
        "cour",
        "u"
      ],
      [
        "pouv",
        "ons"
      ],
      [
        "â",
        "teau"
      ],
      [
        "voi",
        "ent"
      ],
      [
        "f",
        "é"
      ],
      [
        "l",
        "it"
      ],
      [
        "m",
        "ou"
      ],
      [
        "p",
        "a"
      ],
      [
        "li",
        "vre"
      ],
      [
        "brill",
        "ant"
      ],
      [
        "sû",
        "r"
      ],
      [
        "S",
        "ue"
      ],
      [
        "b",
        "elle"
      ],
      [
        "p",
        "ut"
      ],
      [
        "r",
        "endre"
      ],
      [
        "fi",
        "ère"
      ],
      [
        "cur",
        "ité"
      ],
      [
        "m",
        "or"
      ],
      [
        "p",
        "u"
      ],
      [
        "jou",
        "aient"
      ],
      [
        "ri",
        "r"
      ],
      [
        "tou",
        "te"
      ],
      [
        "piè",
        "ce"
      ],
      [
        "g",
        "an"
      ],
      [
        "i",
        "que"
      ],
      [
        "l",
        "is"
      ],
      [
        "com",
        "p"
      ],
      [
        "a",
        "ch"
      ],
      [
        "f",
        "ati"
      ],
      [
        "j",
        "eu"
      ],
      [
        "p",
        "ens"
      ],
      [
        "ri",
        "en"
      ],
      [
        "voiture",
        "s"
      ],
      [
        "ram",
        "as"
      ],
      [
        "fati",
        "gu"
      ],
      [
        "c",
        "ette"
      ],
      [
        "g",
        "ri"
      ],
      [
        "h",
        "o"
      ],
      [
        "p",
        "ot"
      ],
      [
        "p",
        "endant"
      ],
      [
        "am",
        "e"
      ],
      [
        "tr",
        "ois"
      ],
      [
        "ag",
        "es"
      ],
      [
        "che",
        "min"
      ],
      [
        "sur",
        "prise"
      ],
      [
        "vit",
        "e"
      ],
      [
        "lo",
        "in"
      ],
      [
        "ple",
        "urer"
      ],
      [
        "dess",
        "us"
      ],
      [
        "h",
        "er"
      ],
      [
        "vo",
        "ler"
      ],
      [
        "En",
        "suite"
      ],
      [
        "blo",
        "c"
      ],
      [
        "Re",
        "garde"
      ],
      [
        "h",
        "aut"
      ],
      [
        "ê",
        "tes"
      ],
      [
        "et",
        "t"
      ],
      [
        "pr",
        "end"
      ],
      [
        "pas",
        "sé"
      ],
      [
        "al",
        "lait"
      ],
      [
        "jou",
        "ait"
      ],
      [
        "rent",
        "rer"
      ],
      [
        "res",
        "ter"
      ],
      [
        "pro",
        "p"
      ],
      [
        "sé",
        "curité"
      ],
      [
        "vie",
        "il"
      ],
      [
        "P",
        "apa"
      ],
      [
        "n",
        "o"
      ],
      [
        "ch",
        "ap"
      ],
      [
        "in",
        "qui"
      ],
      [
        "sent",
        "ir"
      ],
      [
        "J",
        "im"
      ],
      [
        "b",
        "é"
      ],
      [
        "b",
        "les"
      ],
      [
        "s",
        "oi"
      ],
      [
        "î",
        "t"
      ],
      [
        "con",
        "du"
      ],
      [
        "Sara",
        "h"
      ],
      [
        "déci",
        "dé"
      ],
      [
        "r",
        "u"
      ],
      [
        "il",
        "lé"
      ],
      [
        "at",
        "ion"
      ],
      [
        "ré",
        "al"
      ],
      [
        "sem",
        "b"
      ],
      [
        "don",
        "né"
      ],
      [
        "content",
        "e"
      ],
      [
        "M",
        "ain"
      ],
      [
        "b",
        "li"
      ],
      [
        "c",
        "or"
      ],
      [
        "v",
        "al"
      ],
      [
        "en",
        "ou"
      ],
      [
        "ment",
        "s"
      ],
      [
        "ré",
        "f"
      ],
      [
        "fr",
        "oi"
      ],
      [
        "insec",
        "te"
      ],
      [
        "attent",
        "ion"
      ],
      [
        "Main",
        "tenant"
      ],
      [
        "B",
        "on"
      ],
      [
        "J",
        "ane"
      ],
      [
        "lu",
        "t"
      ],
      [
        "ure",
        "s"
      ],
      [
        "mé",
        "chant"
      ],
      [
        "pla",
        "ît"
      ],
      [
        "essay",
        "er"
      ],
      [
        "attrap",
        "er"
      ],
      [
        "en",
        "ait"
      ],
      [
        "ouv",
        "rit"
      ],
      [
        "im",
        "p"
      ],
      [
        "dis",
        "ent"
      ],
      [
        "fr",
        "ère"
      ],
      [
        "pré",
        "fé"
      ],
      [
        "euse",
        "ment"
      ],
      [
        "Jo",
        "e"
      ],
      [
        "for",
        "êt"
      ],
      [
        "c",
        "â"
      ],
      [
        "c",
        "ré"
      ],
      [
        "d",
        "ois"
      ],
      [
        "ch",
        "es"
      ],
      [
        "com",
        "ment"
      ],
      [
        "sour",
        "is"
      ],
      [
        "cour",
        "ir"
      ],
      [
        "pi",
        "er"
      ],
      [
        "her",
        "be"
      ],
      [
        "b",
        "al"
      ],
      [
        "g",
        "ens"
      ],
      [
        "ét",
        "r"
      ],
      [
        "pouv",
        "oir"
      ],
      [
        "bon",
        "ne"
      ],
      [
        "spéci",
        "ale"
      ],
      [
        "diff",
        "é"
      ],
      [
        "D",
        "ais"
      ],
      [
        "ch",
        "ait"
      ],
      [
        "ri",
        "ère"
      ],
      [
        "vis",
        "age"
      ],
      [
        "conn",
        "ais"
      ],
      [
        "Dais",
        "y"
      ],
      [
        "N",
        "e"
      ],
      [
        "S",
        "on"
      ],
      [
        "te",
        "ment"
      ],
      [
        "ap",
        "pla"
      ],
      [
        "di",
        "re"
      ],
      [
        "dev",
        "ait"
      ],
      [
        "chi",
        "ot"
      ],
      [
        "répon",
        "dit"
      ],
      [
        "réal",
        "is"
      ],
      [
        "réf",
        "lé"
      ],
      [
        "appla",
        "u"
      ],
      [
        "i",
        "gn"
      ],
      [
        "Ç",
        "a"
      ],
      [
        "œ",
        "ur"
      ],
      [
        "es",
        "se"
      ],
      [
        "bo",
        "g"
      ],
      [
        "trav",
        "ers"
      ],
      [
        "brill",
        "ante"
      ],
      [
        "to",
        "bog"
      ],
      [
        "câ",
        "lin"
      ],
      [
        "diffé",
        "rent"
      ],
      [
        "h",
        "é"
      ],
      [
        "ou",
        "bli"
      ],
      [
        "oi",
        "re"
      ],
      [
        "Tom",
        "my"
      ],
      [
        "ro",
        "y"
      ],
      [
        "ami",
        "e"
      ],
      [
        "l",
        "ons"
      ],
      [
        "dé",
        "c"
      ],
      [
        "ser",
        "ré"
      ],
      [
        "vi",
        "vait"
      ],
      [
        "sem",
        "bl"
      ],
      [
        "so",
        "it"
      ],
      [
        "col",
        "l"
      ],
      [
        "quelqu",
        "es"
      ],
      [
        "d",
        "ame"
      ],
      [
        "j",
        "a"
      ],
      [
        "j",
        "oi"
      ],
      [
        "s",
        "ous"
      ],
      [
        "t",
        "ait"
      ],
      [
        "pour",
        "quoi"
      ],
      [
        "reu",
        "x"
      ],
      [
        "di",
        "rent"
      ],
      [
        "ens",
        "uite"
      ],
      [
        "mag",
        "ique"
      ],
      [
        "merve",
        "ille"
      ],
      [
        "délici",
        "eux"
      ],
      [
        "Bon",
        "jour"
      ],
      [
        "bal",
        "an"
      ],
      [
        "B",
        "ien"
      ],
      [
        "c",
        "ray"
      ],
      [
        "f",
        "our"
      ],
      [
        "i",
        "rent"
      ],
      [
        "j",
        "et"
      ],
      [
        "m",
        "ot"
      ],
      [
        "ent",
        "s"
      ],
      [
        "cher",
        "cher"
      ],
      [
        "a",
        "près"
      ],
      [
        "d",
        "r"
      ],
      [
        "i",
        "es"
      ],
      [
        "n",
        "our"
      ],
      [
        "s",
        "au"
      ],
      [
        "v",
        "r"
      ],
      [
        "in",
        "te"
      ],
      [
        "regar",
        "de"
      ],
      [
        "der",
        "rière"
      ],
      [
        "ta",
        "ble"
      ],
      [
        "cha",
        "que"
      ],
      [
        "seu",
        "le"
      ],
      [
        "froi",
        "d"
      ],
      [
        "A",
        "l"
      ],
      [
        "c",
        "ons"
      ],
      [
        "ap",
        "prendre"
      ],
      [
        "ac",
        "qui"
      ],
      [
        "nouv",
        "elle"
      ],
      [
        "po",
        "che"
      ],
      [
        "histoi",
        "re"
      ],
      [
        "person",
        "ne"
      ],
      [
        "bloc",
        "s"
      ],
      [
        "semb",
        "lait"
      ],
      [
        "c",
        "uis"
      ],
      [
        "r",
        "ée"
      ],
      [
        "r",
        "ac"
      ],
      [
        "t",
        "ain"
      ],
      [
        "al",
        "la"
      ],
      [
        "par",
        "tout"
      ],
      [
        "sort",
        "ir"
      ],
      [
        "tobog",
        "gan"
      ],
      [
        "acqui",
        "es"
      ],
      [
        "f",
        "leur"
      ],
      [
        "n",
        "u"
      ],
      [
        "n",
        "y"
      ],
      [
        "n",
        "uit"
      ],
      [
        "v",
        "eut"
      ],
      [
        "po",
        "int"
      ],
      [
        "vol",
        "ant"
      ],
      [
        "feu",
        "illes"
      ],
      [
        "go",
        "û"
      ],
      [
        "J",
        "ill"
      ],
      [
        "U",
        "ne"
      ],
      [
        "g",
        "er"
      ],
      [
        "in",
        "er"
      ],
      [
        "ouv",
        "rir"
      ],
      [
        "jou",
        "é"
      ],
      [
        "ro",
        "cher"
      ],
      [
        "rem",
        "pli"
      ],
      [
        "Q",
        "ue"
      ],
      [
        "b",
        "res"
      ],
      [
        "c",
        "ô"
      ],
      [
        "e",
        "d"
      ],
      [
        "f",
        "ont"
      ],
      [
        "l",
        "è"
      ],
      [
        "r",
        "ais"
      ],
      [
        "r",
        "aient"
      ],
      [
        "v",
        "res"
      ],
      [
        "ai",
        "lle"
      ],
      [
        "se",
        "au"
      ],
      [
        "im",
        "port"
      ],
      [
        "si",
        "gne"
      ],
      [
        "oise",
        "aux"
      ],
      [
        "port",
        "er"
      ],
      [
        "essay",
        "é"
      ],
      [
        "utilis",
        "er"
      ],
      [
        "pens",
        "ait"
      ],
      [
        "A",
        "u"
      ],
      [
        "n",
        "on"
      ],
      [
        "la",
        "m"
      ],
      [
        "ser",
        "ra"
      ],
      [
        "dev",
        "en"
      ],
      [
        "rit",
        "ure"
      ],
      [
        "arri",
        "v"
      ],
      [
        "mont",
        "rer"
      ],
      [
        "désol",
        "ée"
      ],
      [
        "chau",
        "d"
      ],
      [
        "Al",
        "lons"
      ],
      [
        "b",
        "alle"
      ],
      [
        "è",
        "me"
      ],
      [
        "par",
        "ents"
      ],
      [
        "gros",
        "se"
      ],
      [
        "pap",
        "ill"
      ],
      [
        "Jim",
        "my"
      ],
      [
        "c",
        "ouvert"
      ],
      [
        "d",
        "y"
      ],
      [
        "m",
        "ir"
      ],
      [
        "s",
        "ée"
      ],
      [
        "t",
        "ard"
      ],
      [
        "œ",
        "u"
      ],
      [
        "ai",
        "e"
      ],
      [
        "il",
        "la"
      ],
      [
        "fi",
        "er"
      ],
      [
        "con",
        "tr"
      ],
      [
        "don",
        "na"
      ],
      [
        "essay",
        "a"
      ],
      [
        "cer",
        "f"
      ],
      [
        "joi",
        "e"
      ],
      [
        "nour",
        "riture"
      ],
      [
        "cons",
        "tr"
      ],
      [
        "rac",
        "ont"
      ],
      [
        "b",
        "ois"
      ],
      [
        "r",
        "on"
      ],
      [
        "s",
        "t"
      ],
      [
        "u",
        "se"
      ],
      [
        "ce",
        "p"
      ],
      [
        "des",
        "c"
      ],
      [
        "ille",
        "r"
      ],
      [
        "ir",
        "a"
      ],
      [
        "dis",
        "par"
      ],
      [
        "cri",
        "a"
      ],
      [
        "b",
        "as"
      ],
      [
        "c",
        "es"
      ],
      [
        "m",
        "o"
      ],
      [
        "m",
        "ang"
      ],
      [
        "n",
        "es"
      ],
      [
        "t",
        "ion"
      ],
      [
        "il",
        "lait"
      ],
      [
        "qu",
        "eu"
      ],
      [
        "amus",
        "er"
      ],
      [
        "mi",
        "ère"
      ],
      [
        "cri",
        "é"
      ],
      [
        "chap",
        "eau"
      ],
      [
        "m",
        "au"
      ],
      [
        "v",
        "int"
      ],
      [
        "an",
        "ce"
      ],
      [
        "ap",
        "p"
      ],
      [
        "dem",
        "ain"
      ],
      [
        "dem",
        "ande"
      ],
      [
        "aus",
        "s"
      ],
      [
        "cont",
        "re"
      ],
      [
        "main",
        "s"
      ],
      [
        "ord",
        "re"
      ],
      [
        "inc",
        "roy"
      ],
      [
        "ach",
        "et"
      ],
      [
        "D",
        "e"
      ],
      [
        "E",
        "m"
      ],
      [
        "P",
        "ar"
      ],
      [
        "b",
        "â"
      ],
      [
        "p",
        "leur"
      ],
      [
        "v",
        "eu"
      ],
      [
        "le",
        "va"
      ],
      [
        "an",
        "che"
      ],
      [
        "ar",
        "bres"
      ],
      [
        "ap",
        "préci"
      ],
      [
        "dé",
        "s"
      ],
      [
        "at",
        "ure"
      ],
      [
        "ro",
        "be"
      ],
      [
        "sort",
        "it"
      ],
      [
        "seu",
        "l"
      ],
      [
        "entend",
        "u"
      ],
      [
        "prop",
        "re"
      ],
      [
        "cô",
        "té"
      ],
      [
        "queu",
        "e"
      ],
      [
        "\"",
        "."
      ],
      [
        "é",
        "ch"
      ],
      [
        "ch",
        "auss"
      ],
      [
        "at",
        "te"
      ],
      [
        "che",
        "val"
      ],
      [
        "li",
        "gent"
      ],
      [
        "trouv",
        "ait"
      ],
      [
        "don",
        "ner"
      ],
      [
        "att",
        "end"
      ],
      [
        "désol",
        "é"
      ],
      [
        "som",
        "bre"
      ],
      [
        "som",
        "mes"
      ],
      [
        "dou",
        "ce"
      ],
      [
        "remarqu",
        "a"
      ],
      [
        "curi",
        "eux"
      ],
      [
        "gla",
        "ce"
      ],
      [
        "inqui",
        "ète"
      ],
      [
        "réflé",
        "ch"
      ],
      [
        "m",
        "u"
      ],
      [
        "m",
        "ur"
      ],
      [
        "o",
        "c"
      ],
      [
        "s",
        "in"
      ],
      [
        "as",
        "s"
      ],
      [
        "ur",
        "ent"
      ],
      [
        "pas",
        "ser"
      ],
      [
        "gar",
        "der"
      ],
      [
        "tris",
        "tes"
      ],
      [
        "saut",
        "er"
      ],
      [
        "Ce",
        "la"
      ],
      [
        "ho",
        "cha"
      ],
      [
        "sembl",
        "ant"
      ],
      [
        "ja",
        "une"
      ],
      [
        "veu",
        "lent"
      ],
      [
        "d",
        "oi"
      ],
      [
        "g",
        "âteau"
      ],
      [
        "l",
        "ligent"
      ],
      [
        "r",
        "ête"
      ],
      [
        "s",
        "ante"
      ],
      [
        "t",
        "ent"
      ],
      [
        "v",
        "ois"
      ],
      [
        "cou",
        "leurs"
      ],
      [
        "rép",
        "a"
      ],
      [
        "tomb",
        "er"
      ],
      [
        "écou",
        "ter"
      ],
      [
        "Fin",
        "alement"
      ],
      [
        "meilleur",
        "s"
      ],
      [
        "courag",
        "euse"
      ],
      [
        "inte",
        "lligent"
      ],
      [
        "papill",
        "on"
      ],
      [
        "D",
        "ès"
      ],
      [
        "h",
        "i"
      ],
      [
        "h",
        "ui"
      ],
      [
        "m",
        "ons"
      ],
      [
        "u",
        "y"
      ],
      [
        "le",
        "çon"
      ],
      [
        "pr",
        "êt"
      ],
      [
        "par",
        "ler"
      ],
      [
        "ble",
        "u"
      ],
      [
        "té",
        "lé"
      ],
      [
        "ill",
        "y"
      ],
      [
        "all",
        "ée"
      ],
      [
        "col",
        "or"
      ],
      [
        "ple",
        "in"
      ],
      [
        "continu",
        "a"
      ],
      [
        "dou",
        "x"
      ],
      [
        "préfé",
        "ré"
      ],
      [
        "étr",
        "ange"
      ],
      [
        "E",
        "l"
      ],
      [
        "P",
        "our"
      ],
      [
        "m",
        "ange"
      ],
      [
        "s",
        "ais"
      ],
      [
        "â",
        "te"
      ],
      [
        "on",
        "ne"
      ],
      [
        "lu",
        "mière"
      ],
      [
        "jour",
        "d"
      ],
      [
        "at",
        "ient"
      ],
      [
        "ser",
        "ait"
      ],
      [
        "nouv",
        "elles"
      ],
      [
        "gent",
        "ille"
      ],
      [
        "len",
        "tement"
      ],
      [
        "saut",
        "a"
      ],
      [
        "retour",
        "n"
      ],
      [
        "pl",
        "an"
      ],
      [
        "courag",
        "eux"
      ],
      [
        "cuis",
        "ine"
      ],
      [
        "lam",
        "pe"
      ],
      [
        "répa",
        "rer"
      ],
      [
        "S",
        "pot"
      ],
      [
        "g",
        "es"
      ],
      [
        "i",
        "se"
      ],
      [
        "l",
        "ou"
      ],
      [
        "t",
        "is"
      ],
      [
        "î",
        "ner"
      ],
      [
        "ou",
        "i"
      ],
      [
        "tou",
        "cher"
      ],
      [
        "ro",
        "se"
      ],
      [
        "enf",
        "ant"
      ],
      [
        "ret",
        "r"
      ],
      [
        "vis",
        "it"
      ],
      [
        "appro",
        "cha"
      ],
      [
        "diff",
        "ici"
      ],
      [
        "enn",
        "ent"
      ],
      [
        "ct",
        "ion"
      ],
      [
        "éc",
        "la"
      ],
      [
        "mons",
        "tre"
      ],
      [
        "O",
        "h"
      ],
      [
        "b",
        "ons"
      ],
      [
        "g",
        "lis"
      ],
      [
        "p",
        "an"
      ],
      [
        "p",
        "os"
      ],
      [
        "ét",
        "oi"
      ],
      [
        "av",
        "i"
      ],
      [
        "eu",
        "ses"
      ],
      [
        "vo",
        "la"
      ],
      [
        "pouv",
        "ez"
      ],
      [
        "dis",
        "ait"
      ],
      [
        "long",
        "temps"
      ],
      [
        "a",
        "be"
      ],
      [
        "d",
        "or"
      ],
      [
        "f",
        "a"
      ],
      [
        "j",
        "oy"
      ],
      [
        "l",
        "ée"
      ],
      [
        "é",
        "es"
      ],
      [
        "ar",
        "y"
      ],
      [
        "ét",
        "ang"
      ],
      [
        "si",
        "on"
      ],
      [
        "Ben",
        "ny"
      ],
      [
        "sent",
        "ant"
      ],
      [
        "nouv",
        "el"
      ],
      [
        "con",
        "fort"
      ],
      [
        "fin",
        "i"
      ],
      [
        "regard",
        "ait"
      ],
      [
        "pier",
        "re"
      ],
      [
        "coll",
        "ine"
      ],
      [
        "O",
        "n"
      ],
      [
        "ai",
        "gn"
      ],
      [
        "re",
        "connais"
      ],
      [
        "is",
        "c"
      ],
      [
        "ré",
        "ve"
      ],
      [
        "li",
        "vres"
      ],
      [
        "ac",
        "cep"
      ],
      [
        "sent",
        "i"
      ],
      [
        "eur",
        "s"
      ],
      [
        "ro",
        "t"
      ],
      [
        "pro",
        "fon"
      ],
      [
        "ui",
        "re"
      ],
      [
        "arri",
        "va"
      ],
      [
        "oy",
        "er"
      ],
      [
        "cas",
        "sé"
      ],
      [
        "incroy",
        "able"
      ],
      [
        "Pour",
        "quoi"
      ],
      [
        "f",
        "rot"
      ],
      [
        "o",
        "w"
      ],
      [
        "s",
        "c"
      ],
      [
        "s",
        "uc"
      ],
      [
        "de",
        "au"
      ],
      [
        "ent",
        "ra"
      ],
      [
        "es",
        "pé"
      ],
      [
        "ch",
        "ée"
      ],
      [
        "as",
        "in"
      ],
      [
        "ave",
        "z"
      ],
      [
        "pe",
        "lu"
      ],
      [
        "ill",
        "ère"
      ],
      [
        "je",
        "un"
      ],
      [
        "cu",
        "illère"
      ],
      [
        "ven",
        "u"
      ],
      [
        "ven",
        "ir"
      ],
      [
        "mag",
        "asin"
      ],
      [
        "chat",
        "on"
      ],
      [
        "effray",
        "é"
      ],
      [
        "allé",
        "s"
      ],
      [
        "acquies",
        "cé"
      ],
      [
        "import",
        "ant"
      ],
      [
        "d",
        "ét"
      ],
      [
        "g",
        "le"
      ],
      [
        "i",
        "le"
      ],
      [
        "m",
        "at"
      ],
      [
        "n",
        "os"
      ],
      [
        "au",
        "par"
      ],
      [
        "pour",
        "rait"
      ],
      [
        "gr",
        "enou"
      ],
      [
        "li",
        "on"
      ],
      [
        "gent",
        "ils"
      ],
      [
        "long",
        "ue"
      ],
      [
        "jol",
        "i"
      ],
      [
        "remarqu",
        "é"
      ],
      [
        "ph",
        "ot"
      ],
      [
        "fatigu",
        "é"
      ],
      [
        "gri",
        "m"
      ],
      [
        "balan",
        "ç"
      ],
      [
        "aupar",
        "avant"
      ],
      [
        "S",
        "es"
      ],
      [
        "S",
        "all"
      ],
      [
        "b",
        "uis"
      ],
      [
        "c",
        "in"
      ],
      [
        "d",
        "îner"
      ],
      [
        "f",
        "en"
      ],
      [
        "n",
        "oir"
      ],
      [
        "an",
        "der"
      ],
      [
        "par",
        "fait"
      ],
      [
        "br",
        "anche"
      ],
      [
        "vi",
        "eux"
      ],
      [
        "ill",
        "ée"
      ],
      [
        "pé",
        "es"
      ],
      [
        "pi",
        "ed"
      ],
      [
        "dis",
        "put"
      ],
      [
        "enf",
        "uit"
      ],
      [
        "don",
        "ne"
      ],
      [
        "cer",
        "tain"
      ],
      [
        "remerci",
        "é"
      ],
      [
        "continu",
        "é"
      ],
      [
        "pen",
        "se"
      ],
      [
        "pap",
        "ier"
      ],
      [
        "mor",
        "ce"
      ],
      [
        "no",
        "tre"
      ],
      [
        "vr",
        "aiment"
      ],
      [
        "chauss",
        "ures"
      ],
      [
        "mat",
        "in"
      ],
      [
        "Sall",
        "y"
      ],
      [
        "buis",
        "son"
      ],
      [
        "V",
        "eux"
      ],
      [
        "W",
        "ow"
      ],
      [
        "c",
        "ous"
      ],
      [
        "p",
        "ê"
      ],
      [
        "s",
        "œur"
      ],
      [
        "é",
        "merve"
      ],
      [
        "qu",
        "es"
      ],
      [
        "ch",
        "ois"
      ],
      [
        "si",
        "gn"
      ],
      [
        "dé",
        "jeun"
      ],
      [
        "petit",
        "s"
      ],
      [
        "che",
        "veux"
      ],
      [
        "regar",
        "dent"
      ],
      [
        "ien",
        "s"
      ],
      [
        "nom",
        "b"
      ],
      [
        "dev",
        "ant"
      ],
      [
        "Sa",
        "lut"
      ],
      [
        "ca",
        "che"
      ],
      [
        "sec",
        "ret"
      ],
      [
        "histoi",
        "res"
      ],
      [
        "dés",
        "ordre"
      ],
      [
        "fen",
        "être"
      ],
      [
        "g",
        "t"
      ],
      [
        "h",
        "ait"
      ],
      [
        "j",
        "u"
      ],
      [
        "n",
        "ait"
      ],
      [
        "n",
        "or"
      ],
      [
        "n",
        "ett"
      ],
      [
        "s",
        "avoir"
      ],
      [
        "t",
        "ant"
      ],
      [
        "ai",
        "se"
      ],
      [
        "av",
        "ons"
      ],
      [
        "jou",
        "ent"
      ],
      [
        "ri",
        "e"
      ],
      [
        "pouv",
        "aient"
      ],
      [
        "sou",
        "hait"
      ],
      [
        "len",
        "demain"
      ],
      [
        "ven",
        "ait"
      ],
      [
        "fer",
        "me"
      ],
      [
        "appe",
        "la"
      ],
      [
        "meille",
        "ure"
      ],
      [
        "doi",
        "gt"
      ],
      [
        "A",
        "my"
      ],
      [
        "b",
        "ain"
      ],
      [
        "c",
        "les"
      ],
      [
        "i",
        "g"
      ],
      [
        "n",
        "ie"
      ],
      [
        "r",
        "èrent"
      ],
      [
        "t",
        "ons"
      ],
      [
        "é",
        "co"
      ],
      [
        "ch",
        "ans"
      ],
      [
        "av",
        "ion"
      ],
      [
        "ap",
        "part"
      ],
      [
        "cou",
        "cher"
      ],
      [
        "dem",
        "ander"
      ],
      [
        "pe",
        "in"
      ],
      [
        "part",
        "ag"
      ],
      [
        "pro",
        "ch"
      ],
      [
        "pou",
        "pées"
      ],
      [
        "saut",
        "é"
      ],
      [
        "person",
        "nes"
      ],
      [
        "montr",
        "a"
      ],
      [
        "soi",
        "gn"
      ],
      [
        "merveille",
        "ux"
      ],
      [
        "couvert",
        "ure"
      ],
      [
        "éco",
        "le"
      ],
      [
        "a",
        "de"
      ],
      [
        "b",
        "ous"
      ],
      [
        "d",
        "ange"
      ],
      [
        "s",
        "ans"
      ],
      [
        "s",
        "aient"
      ],
      [
        "é",
        "l"
      ],
      [
        "é",
        "lé"
      ],
      [
        "en",
        "se"
      ],
      [
        "es",
        "te"
      ],
      [
        "tr",
        "ain"
      ],
      [
        "par",
        "fois"
      ],
      [
        "ol",
        "i"
      ],
      [
        "lui",
        "e"
      ],
      [
        "cour",
        "ait"
      ],
      [
        "ver",
        "t"
      ],
      [
        "vi",
        "rent"
      ],
      [
        "uit",
        "s"
      ],
      [
        "grand",
        "s"
      ],
      [
        "gn",
        "on"
      ],
      [
        "bou",
        "ger"
      ],
      [
        "sou",
        "ff"
      ],
      [
        "peu",
        "vent"
      ],
      [
        "ren",
        "contr"
      ],
      [
        "désol",
        "és"
      ],
      [
        "promen",
        "er"
      ],
      [
        "poisson",
        "s"
      ],
      [
        "dr",
        "ô"
      ],
      [
        "app",
        "elle"
      ],
      [
        "achet",
        "er"
      ],
      [
        "réfléch",
        "it"
      ],
      [
        "écla",
        "bous"
      ],
      [
        "pelu",
        "che"
      ],
      [
        "déjeun",
        "er"
      ],
      [
        "T",
        "ous"
      ],
      [
        "p",
        "au"
      ],
      [
        "r",
        "ons"
      ],
      [
        "s",
        "èrent"
      ],
      [
        "ç",
        "ait"
      ],
      [
        "il",
        "li"
      ],
      [
        "ar",
        "i"
      ],
      [
        "as",
        "si"
      ],
      [
        "ap",
        "par"
      ],
      [
        "ri",
        "re"
      ],
      [
        "si",
        "este"
      ],
      [
        "end",
        "or"
      ],
      [
        "sur",
        "pris"
      ],
      [
        "vo",
        "tre"
      ],
      [
        "fi",
        "ers"
      ],
      [
        "amus",
        "èrent"
      ],
      [
        "po",
        "ser"
      ],
      [
        "sort",
        "i"
      ],
      [
        "vie",
        "ille"
      ],
      [
        "appe",
        "lé"
      ],
      [
        "ab",
        "ord"
      ],
      [
        "promen",
        "ait"
      ],
      [
        "curi",
        "euse"
      ],
      [
        "diffici",
        "le"
      ],
      [
        "grenou",
        "ille"
      ],
      [
        "soign",
        "eusement"
      ],
      [
        "B",
        "illy"
      ],
      [
        "C",
        "om"
      ],
      [
        "P",
        "ouv"
      ],
      [
        "c",
        "re"
      ],
      [
        "f",
        "ête"
      ],
      [
        "o",
        "re"
      ],
      [
        "qu",
        "er"
      ],
      [
        "se",
        "cou"
      ],
      [
        "la",
        "c"
      ],
      [
        "pr",
        "ennent"
      ],
      [
        "pas",
        "sait"
      ],
      [
        "im",
        "ag"
      ],
      [
        "all",
        "ons"
      ],
      [
        "mi",
        "se"
      ],
      [
        "nouveau",
        "x"
      ],
      [
        "ten",
        "ait"
      ],
      [
        "exp",
        "li"
      ],
      [
        "appe",
        "lée"
      ],
      [
        "let",
        "tre"
      ],
      [
        "aventure",
        "s"
      ],
      [
        "insec",
        "tes"
      ],
      [
        "voy",
        "age"
      ],
      [
        "différent",
        "es"
      ],
      [
        "él",
        "oi"
      ],
      [
        "b",
        "u"
      ],
      [
        "f",
        "ri"
      ],
      [
        "f",
        "us"
      ],
      [
        "j",
        "o"
      ],
      [
        "v",
        "ête"
      ],
      [
        "é",
        "cri"
      ],
      [
        "ar",
        "aign"
      ],
      [
        "au",
        "rait"
      ],
      [
        "sa",
        "le"
      ],
      [
        "jou",
        "èrent"
      ],
      [
        "li",
        "re"
      ],
      [
        "cour",
        "t"
      ],
      [
        "trouv",
        "ent"
      ],
      [
        "co",
        "in"
      ],
      [
        "dev",
        "ez"
      ],
      [
        "An",
        "dy"
      ],
      [
        "col",
        "la"
      ],
      [
        "pré",
        "par"
      ],
      [
        "sou",
        "la"
      ],
      [
        "retour",
        "na"
      ],
      [
        "mont",
        "re"
      ],
      [
        "met",
        "tre"
      ],
      [
        "jol",
        "ie"
      ],
      [
        "cray",
        "ons"
      ],
      [
        "constr",
        "uire"
      ],
      [
        "bâ",
        "ton"
      ],
      [
        "visit",
        "e"
      ],
      [
        "vête",
        "ments"
      ],
      [
        "B",
        "ientôt"
      ],
      [
        "a",
        "k"
      ],
      [
        "a",
        "ff"
      ],
      [
        "b",
        "at"
      ],
      [
        "g",
        "enou"
      ],
      [
        "i",
        "ge"
      ],
      [
        "m",
        "an"
      ],
      [
        "n",
        "t"
      ],
      [
        "o",
        "k"
      ],
      [
        "p",
        "on"
      ],
      [
        "p",
        "luie"
      ],
      [
        "en",
        "ne"
      ],
      [
        "an",
        "ci"
      ],
      [
        "la",
        "r"
      ],
      [
        "ar",
        "rête"
      ],
      [
        "in",
        "rent"
      ],
      [
        "rent",
        "ra"
      ],
      [
        "vou",
        "lu"
      ],
      [
        "dev",
        "ons"
      ],
      [
        "enf",
        "in"
      ],
      [
        "pla",
        "ce"
      ],
      [
        "bou",
        "che"
      ],
      [
        "car",
        "te"
      ],
      [
        "cu",
        "pé"
      ],
      [
        "dess",
        "iner"
      ],
      [
        "attr",
        "apa"
      ],
      [
        "ren",
        "ard"
      ],
      [
        "cray",
        "on"
      ],
      [
        "abe",
        "ille"
      ],
      [
        "joy",
        "eusement"
      ],
      [
        "proch",
        "aine"
      ],
      [
        "J",
        "en"
      ],
      [
        "a",
        "jou"
      ],
      [
        "b",
        "an"
      ],
      [
        "f",
        "orte"
      ],
      [
        "m",
        "ét"
      ],
      [
        "p",
        "rem"
      ],
      [
        "tr",
        "és"
      ],
      [
        "br",
        "illait"
      ],
      [
        "ser",
        "vi"
      ],
      [
        "cour",
        "ent"
      ],
      [
        "dev",
        "ri"
      ],
      [
        "commen",
        "c"
      ],
      [
        "amus",
        "ent"
      ],
      [
        "amus",
        "és"
      ],
      [
        "mé",
        "l"
      ],
      [
        "ami",
        "cal"
      ],
      [
        "per",
        "du"
      ],
      [
        "port",
        "ait"
      ],
      [
        "ca",
        "deau"
      ],
      [
        "chant",
        "er"
      ],
      [
        "ob",
        "ser"
      ],
      [
        "vé",
        "lo"
      ],
      [
        "for",
        "mes"
      ],
      [
        "lais",
        "se"
      ],
      [
        "préci",
        "euse"
      ],
      [
        "cal",
        "me"
      ],
      [
        "can",
        "ne"
      ],
      [
        "montr",
        "é"
      ],
      [
        "prend",
        "s"
      ],
      [
        "soi",
        "ent"
      ],
      [
        "G",
        "r"
      ],
      [
        "c",
        "ami"
      ],
      [
        "d",
        "û"
      ],
      [
        "f",
        "la"
      ],
      [
        "g",
        "ag"
      ],
      [
        "h",
        "u"
      ],
      [
        "h",
        "ab"
      ],
      [
        "h",
        "âte"
      ],
      [
        "i",
        "ère"
      ],
      [
        "n",
        "ent"
      ],
      [
        "n",
        "ager"
      ],
      [
        "s",
        "se"
      ],
      [
        "v",
        "ant"
      ],
      [
        "qu",
        "a"
      ],
      [
        "se",
        "ment"
      ],
      [
        "ar",
        "c"
      ],
      [
        "ch",
        "ette"
      ],
      [
        "ch",
        "âteau"
      ],
      [
        "in",
        "g"
      ],
      [
        "gr",
        "ave"
      ],
      [
        "rent",
        "ré"
      ],
      [
        "cour",
        "se"
      ],
      [
        "aim",
        "er"
      ],
      [
        "part",
        "i"
      ],
      [
        "ter",
        "min"
      ],
      [
        "co",
        "ol"
      ],
      [
        "co",
        "ok"
      ],
      [
        "exc",
        "us"
      ],
      [
        "amus",
        "ante"
      ],
      [
        "ot",
        "te"
      ],
      [
        "port",
        "a"
      ],
      [
        "att",
        "endre"
      ],
      [
        "mag",
        "ni"
      ],
      [
        "bl",
        "anc"
      ],
      [
        "sui",
        "vre"
      ],
      [
        "rend",
        "ait"
      ],
      [
        "arrê",
        "té"
      ],
      [
        "can",
        "ard"
      ],
      [
        "fon",
        "ction"
      ],
      [
        "cor",
        "de"
      ],
      [
        "mau",
        "vais"
      ],
      [
        "confort",
        "able"
      ],
      [
        "cami",
        "ons"
      ],
      [
        "magni",
        "fi"
      ],
      [
        "P",
        "lus"
      ],
      [
        "b",
        "ut"
      ],
      [
        "c",
        "ée"
      ],
      [
        "c",
        "ro"
      ],
      [
        "c",
        "ra"
      ],
      [
        "c",
        "œur"
      ],
      [
        "f",
        "s"
      ],
      [
        "f",
        "aim"
      ],
      [
        "m",
        "ante"
      ],
      [
        "p",
        "it"
      ],
      [
        "r",
        "anger"
      ],
      [
        "t",
        "asse"
      ],
      [
        "v",
        "ont"
      ],
      [
        "v",
        "ue"
      ],
      [
        "le",
        "ver"
      ],
      [
        "de",
        "puis"
      ],
      [
        "la",
        "t"
      ],
      [
        "au",
        "te"
      ],
      [
        "ais",
        "se"
      ],
      [
        "lu",
        "min"
      ],
      [
        "ne",
        "ige"
      ],
      [
        "ap",
        "prit"
      ],
      [
        "tre",
        "m"
      ],
      [
        "ure",
        "u"
      ],
      [
        "je",
        "une"
      ],
      [
        "souri",
        "ait"
      ],
      [
        "ten",
        "dit"
      ],
      [
        "ma",
        "la"
      ],
      [
        "sou",
        "pe"
      ],
      [
        "mar",
        "cher"
      ],
      [
        "mar",
        "ché"
      ],
      [
        "attrap",
        "é"
      ],
      [
        "effray",
        "ant"
      ],
      [
        "sui",
        "vit"
      ],
      [
        "ct",
        "eur"
      ],
      [
        "arrê",
        "ta"
      ],
      [
        "éc",
        "ureu"
      ],
      [
        "bé",
        "bé"
      ],
      [
        "serré",
        "s"
      ],
      [
        "mang",
        "é"
      ],
      [
        "El",
        "ly"
      ],
      [
        "étoi",
        "les"
      ],
      [
        "nett",
        "oyer"
      ],
      [
        "imag",
        "in"
      ],
      [
        "cook",
        "ies"
      ],
      [
        "c",
        "le"
      ],
      [
        "h",
        "aute"
      ],
      [
        "o",
        "ff"
      ],
      [
        "t",
        "hé"
      ],
      [
        "lle",
        "z"
      ],
      [
        "ch",
        "ante"
      ],
      [
        "au",
        "jourd"
      ],
      [
        "gr",
        "é"
      ],
      [
        "che",
        "mise"
      ],
      [
        "pe",
        "int"
      ],
      [
        "amus",
        "aient"
      ],
      [
        "so",
        "in"
      ],
      [
        "ca",
        "res"
      ],
      [
        "cu",
        "le"
      ],
      [
        "anim",
        "al"
      ],
      [
        "cas",
        "sée"
      ],
      [
        "regard",
        "ant"
      ],
      [
        "su",
        "per"
      ],
      [
        "condu",
        "cteur"
      ],
      [
        "réalis",
        "a"
      ],
      [
        "réalis",
        "é"
      ],
      [
        "four",
        "chette"
      ],
      [
        "Em",
        "ma"
      ],
      [
        "ass",
        "is"
      ],
      [
        "élé",
        "ph"
      ],
      [
        "Com",
        "ment"
      ],
      [
        "Gr",
        "and"
      ],
      [
        "magnifi",
        "que"
      ],
      [
        "A",
        "llez"
      ],
      [
        "C",
        "ette"
      ],
      [
        "E",
        "st"
      ],
      [
        "F",
        "r"
      ],
      [
        "M",
        "oi"
      ],
      [
        "M",
        "ary"
      ],
      [
        "P",
        "etit"
      ],
      [
        "c",
        "l"
      ],
      [
        "c",
        "lé"
      ],
      [
        "c",
        "ue"
      ],
      [
        "d",
        "ait"
      ],
      [
        "f",
        "lo"
      ],
      [
        "f",
        "esse"
      ],
      [
        "h",
        "on"
      ],
      [
        "p",
        "ira"
      ],
      [
        "t",
        "au"
      ],
      [
        "î",
        "tre"
      ],
      [
        "ch",
        "è"
      ],
      [
        "pr",
        "inc"
      ],
      [
        "pas",
        "se"
      ],
      [
        "ci",
        "ère"
      ],
      [
        "ri",
        "rent"
      ],
      [
        "im",
        "ages"
      ],
      [
        "ble",
        "ue"
      ],
      [
        "cour",
        "ant"
      ],
      [
        "part",
        "it"
      ],
      [
        "trouv",
        "e"
      ],
      [
        "pro",
        "fesse"
      ],
      [
        "demand",
        "ait"
      ],
      [
        "pla",
        "ge"
      ],
      [
        "arri",
        "vé"
      ],
      [
        "puis",
        "se"
      ],
      [
        "En",
        "semble"
      ],
      [
        "fin",
        "alement"
      ],
      [
        "rend",
        "u"
      ],
      [
        "emmen",
        "er"
      ],
      [
        "brillant",
        "es"
      ],
      [
        "mor",
        "ale"
      ],
      [
        "ramas",
        "ser"
      ],
      [
        "illa",
        "ge"
      ],
      [
        "ense",
        "ign"
      ],
      [
        "araign",
        "ée"
      ],
      [
        "écureu",
        "il"
      ],
      [
        "éléph",
        "ant"
      ],
      [
        "princ",
        "esse"
      ],
      [
        "professe",
        "ur"
      ],
      [
        "b",
        "ag"
      ],
      [
        "b",
        "isc"
      ],
      [
        "c",
        "ut"
      ],
      [
        "c",
        "lo"
      ],
      [
        "d",
        "ur"
      ],
      [
        "g",
        "a"
      ],
      [
        "l",
        "or"
      ],
      [
        "m",
        "erci"
      ],
      [
        "p",
        "il"
      ],
      [
        "r",
        "ue"
      ],
      [
        "t",
        "ort"
      ],
      [
        "v",
        "es"
      ],
      [
        "de",
        "dans"
      ],
      [
        "an",
        "k"
      ],
      [
        "ent",
        "endre"
      ],
      [
        "il",
        "i"
      ],
      [
        "un",
        "es"
      ],
      [
        "in",
        "ce"
      ],
      [
        "pr",
        "enait"
      ],
      [
        "sa",
        "lle"
      ],
      [
        "sa",
        "lon"
      ],
      [
        "ri",
        "ent"
      ],
      [
        "ri",
        "er"
      ],
      [
        "gr",
        "otte"
      ],
      [
        "at",
        "ta"
      ],
      [
        "com",
        "ète"
      ],
      [
        "cher",
        "ché"
      ],
      [
        "pro",
        "bl"
      ],
      [
        "dev",
        "int"
      ],
      [
        "dev",
        "rais"
      ],
      [
        "excit",
        "ation"
      ],
      [
        "bo",
        "cal"
      ],
      [
        "gu",
        "er"
      ],
      [
        "exp",
        "lor"
      ],
      [
        "rê",
        "ve"
      ],
      [
        "regard",
        "èrent"
      ],
      [
        "prudent",
        "e"
      ],
      [
        "mou",
        "lin"
      ],
      [
        "bles",
        "sé"
      ],
      [
        "nu",
        "ages"
      ],
      [
        "atient",
        "e"
      ],
      [
        "parfait",
        "e"
      ],
      [
        "dange",
        "reux"
      ],
      [
        "drô",
        "le"
      ],
      [
        "Fr",
        "ank"
      ],
      [
        "chè",
        "vre"
      ],
      [
        "D",
        "és"
      ],
      [
        "P",
        "eux"
      ],
      [
        "b",
        "ar"
      ],
      [
        "b",
        "ille"
      ],
      [
        "c",
        "elle"
      ],
      [
        "c",
        "ail"
      ],
      [
        "e",
        "p"
      ],
      [
        "l",
        "our"
      ],
      [
        "n",
        "age"
      ],
      [
        "r",
        "ant"
      ],
      [
        "s",
        "avaient"
      ],
      [
        "t",
        "as"
      ],
      [
        "t",
        "im"
      ],
      [
        "en",
        "ir"
      ],
      [
        "en",
        "vola"
      ],
      [
        "an",
        "ni"
      ],
      [
        "or",
        "ange"
      ],
      [
        "me",
        "aux"
      ],
      [
        "reu",
        "ses"
      ],
      [
        "heu",
        "res"
      ],
      [
        "ser",
        "re"
      ],
      [
        "cher",
        "chait"
      ],
      [
        "part",
        "ie"
      ],
      [
        "co",
        "lle"
      ],
      [
        "ang",
        "es"
      ],
      [
        "vers",
        "aire"
      ],
      [
        "bon",
        "jour"
      ],
      [
        "mar",
        "cha"
      ],
      [
        "voi",
        "le"
      ],
      [
        "dess",
        "in"
      ],
      [
        "mont",
        "er"
      ],
      [
        "vis",
        "ion"
      ],
      [
        "oin",
        "dre"
      ],
      [
        "som",
        "met"
      ],
      [
        "enn",
        "uy"
      ],
      [
        "asse",
        "z"
      ],
      [
        "ru",
        "ban"
      ],
      [
        "mu",
        "si"
      ],
      [
        "retr",
        "ouv"
      ],
      [
        "ju",
        "meaux"
      ],
      [
        "éloi",
        "gn"
      ],
      [
        "flo",
        "t"
      ],
      [
        "cail",
        "lou"
      ],
      [
        "anni",
        "versaire"
      ],
      [
        "O",
        "ù"
      ],
      [
        "b",
        "anc"
      ],
      [
        "d",
        "èrent"
      ],
      [
        "f",
        "il"
      ],
      [
        "j",
        "oindre"
      ],
      [
        "p",
        "ir"
      ],
      [
        "s",
        "ois"
      ],
      [
        "t",
        "end"
      ],
      [
        "t",
        "aille"
      ],
      [
        "é",
        "chap"
      ],
      [
        "é",
        "nor"
      ],
      [
        "ï",
        "e"
      ],
      [
        "ai",
        "dé"
      ],
      [
        "ai",
        "res"
      ],
      [
        "ou",
        "h"
      ],
      [
        "re",
        "poser"
      ],
      [
        "it",
        "i"
      ],
      [
        "qu",
        "é"
      ],
      [
        "ch",
        "et"
      ],
      [
        "in",
        "té"
      ],
      [
        "ur",
        "s"
      ],
      [
        "sa",
        "ge"
      ],
      [
        "im",
        "porte"
      ],
      [
        "Le",
        "o"
      ],
      [
        "heu",
        "re"
      ],
      [
        "ver",
        "te"
      ],
      [
        "vi",
        "ent"
      ],
      [
        "cher",
        "che"
      ],
      [
        "pro",
        "du"
      ],
      [
        "pro",
        "pri"
      ],
      [
        "bou",
        "cles"
      ],
      [
        "sort",
        "ie"
      ],
      [
        "arri",
        "ver"
      ],
      [
        "tomb",
        "é"
      ],
      [
        "écou",
        "ta"
      ],
      [
        "arrê",
        "ter"
      ],
      [
        "souv",
        "int"
      ],
      [
        "pous",
        "ser"
      ],
      [
        "ramas",
        "sa"
      ],
      [
        "déc",
        "ouvrir"
      ],
      [
        "mot",
        "s"
      ],
      [
        "dr",
        "ag"
      ],
      [
        "arriv",
        "ée"
      ],
      [
        "dispar",
        "u"
      ],
      [
        "Par",
        "fois"
      ],
      [
        "télé",
        "vision"
      ],
      [
        "mange",
        "a"
      ],
      [
        "suc",
        "ré"
      ],
      [
        "grim",
        "per"
      ],
      [
        "certain",
        "es"
      ],
      [
        "cous",
        "sin"
      ],
      [
        "Pouv",
        "ons"
      ],
      [
        "bat",
        "tre"
      ],
      [
        "musi",
        "que"
      ],
      [
        "propri",
        "ét"
      ],
      [
        "F",
        "ais"
      ],
      [
        "b",
        "i"
      ],
      [
        "b",
        "ure"
      ],
      [
        "d",
        "s"
      ],
      [
        "d",
        "roit"
      ],
      [
        "g",
        "i"
      ],
      [
        "i",
        "ble"
      ],
      [
        "m",
        "oy"
      ],
      [
        "o",
        "cé"
      ],
      [
        "p",
        "lu"
      ],
      [
        "p",
        "ol"
      ],
      [
        "p",
        "omme"
      ],
      [
        "s",
        "im"
      ],
      [
        "t",
        "ap"
      ],
      [
        "v",
        "ille"
      ],
      [
        "y",
        "er"
      ],
      [
        "è",
        "ne"
      ],
      [
        "î",
        "ne"
      ],
      [
        "œ",
        "il"
      ],
      [
        "le",
        "z"
      ],
      [
        "re",
        "ine"
      ],
      [
        "ar",
        "gent"
      ],
      [
        "as",
        "sur"
      ],
      [
        "oi",
        "res"
      ],
      [
        "ré",
        "cupé"
      ],
      [
        "res",
        "te"
      ],
      [
        "cour",
        "urent"
      ],
      [
        "fi",
        "rent"
      ],
      [
        "fi",
        "able"
      ],
      [
        "souri",
        "rent"
      ],
      [
        "lors",
        "que"
      ],
      [
        "ten",
        "ir"
      ],
      [
        "bou",
        "ge"
      ],
      [
        "ple",
        "ine"
      ],
      [
        "retour",
        "ner"
      ],
      [
        "ram",
        "en"
      ],
      [
        "pen",
        "sa"
      ],
      [
        "délici",
        "euse"
      ],
      [
        "emmen",
        "a"
      ],
      [
        "ramas",
        "sé"
      ],
      [
        "imp",
        "res"
      ],
      [
        "préfé",
        "rée"
      ],
      [
        "applau",
        "di"
      ],
      [
        "mau",
        "v"
      ],
      [
        "espé",
        "rait"
      ],
      [
        "disput",
        "er"
      ],
      [
        "pê",
        "cher"
      ],
      [
        "nomb",
        "reuses"
      ],
      [
        "hab",
        "it"
      ],
      [
        "Dés",
        "ol"
      ],
      [
        "bure",
        "au"
      ],
      [
        "sim",
        "ple"
      ],
      [
        "A",
        "ve"
      ],
      [
        "C",
        "er"
      ],
      [
        "J",
        "am"
      ],
      [
        "J",
        "enn"
      ],
      [
        "J",
        "ak"
      ],
      [
        "W",
        "a"
      ],
      [
        "b",
        "ur"
      ],
      [
        "c",
        "it"
      ],
      [
        "d",
        "o"
      ],
      [
        "d",
        "in"
      ],
      [
        "g",
        "ée"
      ],
      [
        "i",
        "ons"
      ],
      [
        "k",
        "y"
      ],
      [
        "o",
        "coll"
      ],
      [
        "r",
        "at"
      ],
      [
        "s",
        "av"
      ],
      [
        "ç",
        "ant"
      ],
      [
        "ï",
        "s"
      ],
      [
        "ou",
        "pe"
      ],
      [
        "ét",
        "u"
      ],
      [
        "om",
        "be"
      ],
      [
        "or",
        "gan"
      ],
      [
        "tr",
        "a"
      ],
      [
        "pr",
        "ête"
      ],
      [
        "ant",
        "es"
      ],
      [
        "ri",
        "vi"
      ],
      [
        "son",
        "s"
      ],
      [
        "gr",
        "oupe"
      ],
      [
        "gar",
        "age"
      ],
      [
        "li",
        "er"
      ],
      [
        "sent",
        "ent"
      ],
      [
        "sent",
        "aient"
      ],
      [
        "aut",
        "ocoll"
      ],
      [
        "pe",
        "ine"
      ],
      [
        "pe",
        "ct"
      ],
      [
        "Je",
        "an"
      ],
      [
        "amus",
        "ait"
      ],
      [
        "fait",
        "es"
      ],
      [
        "mé",
        "di"
      ],
      [
        "lors",
        "qu"
      ],
      [
        "cha",
        "îne"
      ],
      [
        "po",
        "sa"
      ],
      [
        "déci",
        "dèrent"
      ],
      [
        "port",
        "é"
      ],
      [
        "sort",
        "es"
      ],
      [
        "em",
        "m"
      ],
      [
        "em",
        "bras"
      ],
      [
        "arri",
        "ère"
      ],
      [
        "puis",
        "sant"
      ],
      [
        "ven",
        "ue"
      ],
      [
        "cham",
        "p"
      ],
      [
        "ouver",
        "te"
      ],
      [
        "ab",
        "les"
      ],
      [
        "ab",
        "ri"
      ],
      [
        "lais",
        "ser"
      ],
      [
        "mou",
        "illé"
      ],
      [
        "pier",
        "res"
      ],
      [
        "mir",
        "oir"
      ],
      [
        "desc",
        "end"
      ],
      [
        "douce",
        "ment"
      ],
      [
        "phot",
        "os"
      ],
      [
        "émerve",
        "illé"
      ],
      [
        "énor",
        "me"
      ],
      [
        "drag",
        "on"
      ],
      [
        "impres",
        "sion"
      ],
      [
        "Cer",
        "tain"
      ],
      [
        "Jam",
        "es"
      ],
      [
        "Jenn",
        "y"
      ],
      [
        "Jak",
        "e"
      ],
      [
        "Wa",
        "ouh"
      ],
      [
        "organ",
        "is"
      ],
      [
        "rivi",
        "ère"
      ],
      [
        "F",
        "lu"
      ],
      [
        "a",
        "ci"
      ],
      [
        "d",
        "en"
      ],
      [
        "i",
        "re"
      ],
      [
        "i",
        "ses"
      ],
      [
        "j",
        "eux"
      ],
      [
        "n",
        "œu"
      ],
      [
        "n",
        "avi"
      ],
      [
        "p",
        "â"
      ],
      [
        "s",
        "or"
      ],
      [
        "w",
        "ing"
      ],
      [
        "é",
        "g"
      ],
      [
        "re",
        "vi"
      ],
      [
        "ét",
        "er"
      ],
      [
        "ne",
        "z"
      ],
      [
        "pas",
        "sa"
      ],
      [
        "che",
        "wing"
      ],
      [
        "br",
        "iller"
      ],
      [
        "heureu",
        "ses"
      ],
      [
        "aim",
        "ons"
      ],
      [
        "vi",
        "o"
      ],
      [
        "ro",
        "s"
      ],
      [
        "ff",
        "y"
      ],
      [
        "ff",
        "re"
      ],
      [
        "pro",
        "fit"
      ],
      [
        "co",
        "ffre"
      ],
      [
        "dev",
        "inrent"
      ],
      [
        "commen",
        "çait"
      ],
      [
        "mi",
        "rent"
      ],
      [
        "excit",
        "és"
      ],
      [
        "fr",
        "uits"
      ],
      [
        "ca",
        "cher"
      ],
      [
        "gu",
        "m"
      ],
      [
        "dess",
        "ins"
      ],
      [
        "ren",
        "dit"
      ],
      [
        "ren",
        "ver"
      ],
      [
        "appe",
        "ler"
      ],
      [
        "ab",
        "and"
      ],
      [
        "continu",
        "ait"
      ],
      [
        "ti",
        "ons"
      ],
      [
        "cas",
        "ser"
      ],
      [
        "effray",
        "ée"
      ],
      [
        "endroit",
        "s"
      ],
      [
        "écou",
        "té"
      ],
      [
        "délici",
        "euses"
      ],
      [
        "prudent",
        "s"
      ],
      [
        "cré",
        "ature"
      ],
      [
        "arriv",
        "és"
      ],
      [
        "vois",
        "in"
      ],
      [
        "intelligent",
        "e"
      ],
      [
        "retr",
        "ouver"
      ],
      [
        "dor",
        "mir"
      ],
      [
        "sc",
        "int"
      ],
      [
        "balanç",
        "oires"
      ],
      [
        "morce",
        "au"
      ],
      [
        "chans",
        "on"
      ],
      [
        "pein",
        "tre"
      ],
      [
        "prem",
        "ier"
      ],
      [
        "mante",
        "au"
      ],
      [
        "gré",
        "able"
      ],
      [
        "clo",
        "che"
      ],
      [
        "probl",
        "ème"
      ],
      [
        "Flu",
        "ffy"
      ],
      [
        "A",
        "r"
      ],
      [
        "B",
        "e"
      ],
      [
        "a",
        "y"
      ],
      [
        "c",
        "ac"
      ],
      [
        "d",
        "os"
      ],
      [
        "f",
        "u"
      ],
      [
        "f",
        "ant"
      ],
      [
        "f",
        "ée"
      ],
      [
        "m",
        "â"
      ],
      [
        "r",
        "ang"
      ],
      [
        "t",
        "èrent"
      ],
      [
        "re",
        "cherche"
      ],
      [
        "es",
        "s"
      ],
      [
        "ch",
        "u"
      ],
      [
        "ch",
        "ent"
      ],
      [
        "ch",
        "èrent"
      ],
      [
        "is",
        "sait"
      ],
      [
        "pr",
        "ai"
      ],
      [
        "elle",
        "ment"
      ],
      [
        "sa",
        "lu"
      ],
      [
        "sa",
        "ble"
      ],
      [
        "ouv",
        "re"
      ],
      [
        "dans",
        "er"
      ],
      [
        "jou",
        "ant"
      ],
      [
        "im",
        "on"
      ],
      [
        "si",
        "f"
      ],
      [
        "dé",
        "pla"
      ],
      [
        "ré",
        "par"
      ],
      [
        "ain",
        "si"
      ],
      [
        "br",
        "uy"
      ],
      [
        "ser",
        "rèrent"
      ],
      [
        "res",
        "té"
      ],
      [
        "con",
        "fi"
      ],
      [
        "all",
        "èrent"
      ],
      [
        "ve",
[...]
